0
0
0
0
0
0
0
0
0
0
0
0
0
0
0
0
0
0
0
0
0
0
0
0
0
0
0
0
0
0
0
0
0
0
0
0
0
0
0
0
0
0
0
0
0
0
0
0
0
0
0
0
0
0
0
0
0
0
0
0
0
0
0
0
0
1
0
0
1
1
1
11111111
11111110
0
0
0
0
0
0
0
0
0
0
0
0
0
0
0
0
0
0
0
0
0
11111101
0
0
11111111
0
11111111
0
11
1
1
11111101
1
1
1
0
0
0
0
0
0
0
0
0
0
0
0
11111110
11111110
1
10
10
0
11
0
11
10
1
0
0
11111110
0
0
11111101
0
0
0
0
0
0
0
0
0
0
1
11
0
10
11
10
0
0
11111110
10
0
1
1
1
0
11111110
11111111
11111110
0
0
0
0
0
0
0
11111111
0
11
110
100
11111110
1
0
0
0
0
1
11111111
11111101
0
0
11111110
11
10
11111111
11111110
0
0
0
0
0
0
11111111
11111110
1
101
100
1
0
0
10
0
0
11111010
0
100
0
101
0
11111111
11
0
0
11111101
0
0
0
0
0
1
11111111
0
100
101
111
110
0
0
11111111
10
1
11111011
0
11
110
0
100
11111100
11111101
11111111
11111110
11111010
11111101
11111111
0
0
0
1
1
10
11
1
100
101
11
11111111
11111100
0
0
0
1
11111101
11111101
11
100
110
100
11111101
0
11111101
11111101
0
0
0
0
0
0
10
11
11
101
10
1
0
11111111
0
11111101
11111100
11111110
11111100
0
0
11111110
0
0
11111111
11111101
11111100
11111011
0
0
0
0
0
0
0
10
111
101
0
11
11
0
11
11111111
11111010
11111001
11111111
11111100
11111010
11111100
11111100
11111101
0
11111011
11111011
11111100
0
0
0
0
0
0
0
10
1000
101
101
10
0
10
11
11111110
11111011
11111010
11111011
11111100
11111100
1
11111111
111
110
100
101
0
0
0
0
0
0
0
0
101
1001
1000
11
110
10
0
11111110
11111101
11111011
11111101
11111100
11111111
11
11111110
0
100
1010
1011
110
1
0
0
0
0
0
0
10
110
1011
1101
1001
11
0
11111111
11111110
0
11111001
0
11111111
11111111
1
101
11
11111111
101
1000
11
1
0
0
0
0
0
0
0
10
110
1011
1111
1111
1001
101
11111111
11111111
0
0
11111110
1
11111100
11111110
0
11111110
10
101
100
1
0
0
0
0
0
0
11111111
11111101
0
110
1100
10101
11001
10010
1010
110
10
1
100
11111111
11111100
11111011
11111101
11111110
10
1000
11
1
0
0
0
0
0
0
11111110
11111110
11111100
11111111
11
111
1001
1110
1100
1010
100
0
1
11111111
11
11111101
11111111
0
0
11
10
1
0
0
0
0
0
11111110
0
0
11111110
11111001
11111010
11111101
10
1
111
1010
1
0
110
11111111
1
1
11111011
1
101
110
10
0
0
0
0
0
0
11111101
11111110
11111110
11111110
11111101
11111001
0
11111111
11111100
11111111
11111100
11111101
10
11111111
1
0
0
11111111
11
11
100
1
0
0
0
0
0
0
0
0
11111010
11111010
1
11111010
11111101
11111100
11111111
1
10
0
10
1
11111111
0
11111111
0
101
10
101
1
0
0
0
0
0
1
10
1
11111100
11111111
11
11111010
11111101
11111010
11111011
0
0
0
11111111
101
1
11111101
10
1
101
110
101
10
0
0
0
0
0
1
1
10
10
10
110
0
1
0
1
11
0
0
11111111
1
0
1
0
10
11
11
1
1
1
0
0
0
0
0
0
0
11111111
10
11
100
10
11111110
0
0
0
1
10
101
0
10
100
101
100
10
0
0
0
0
0
0
0
0
0
0
11111111
1
0
10
1
10
101
10
100
10
100
1
10
111
101
11
100
1
0
0
0
0
0
0
0
0
0
0
0
0
0
11111111
0
10
11
0
11
111
100
1
11
11
1
0
0
0
0
0
0
0
0
0
0
0
0
0
0
0
0
1
10
1
10
1
1
0
11111111
0
0
0
0
0
0
0
0
0
0
0
0
0
0
0
0
0
0
0
0
0
0
0
0
0
0
0
0
0
0
0
0
0
0
0
0
0
0
0
0
