0
0
0
0
0
0
0
0
0
0
0
0
0
0
0
0
0
0
0
0
0
0
0
0
0
0
0
0
0
0
0
0
0
0
0
0
0
0
0
0
0
0
0
0
0
0
0
0
0
0
0
0
0
0
0
0
0
0
0
0
0
0
0
0
0
1
0
0
1
0
1
0
0
0
0
1
0
0
0
0
0
0
0
0
0
0
0
0
0
0
0
0
0
0
0
0
11111111
11111110
11111110
11111101
11111110
0
10
10
0
10
10
1
0
0
0
0
0
0
0
0
0
0
0
1
0
0
0
0
0
11111110
11111111
0
1
101
11
11
10
11111111
1
1
0
0
0
0
0
0
0
0
0
11111110
11111111
0
11111111
0
10
0
0
0
11111111
11111111
11111111
10
1
11111111
1
0
11111111
0
10
1
0
0
0
0
0
11111111
0
11111100
11111011
0
0
11111111
0
0
11
1000
1001
1001
0
11111111
11111101
11
11
11111110
10
0
0
0
11111111
11111111
0
0
0
11111101
11111110
11111101
11111110
0
10
0
11111110
10
0
11
101
1010
10
10
1
100
11
0
0
11111011
11111111
1
11111111
0
0
0
0
11111111
0
0
1
11111111
11111110
0
0
10
11111100
0
100
1
101
100
100
10
11111100
11111101
11111000
11111001
11111110
11111111
11111111
0
0
0
0
11111111
11111110
11111110
0
11111110
11111111
0
101
1
0
11111111
11111111
1
10
0
1
11
0
11111100
11111011
11111110
11111111
0
0
0
0
0
11111111
11111110
11111111
0
10
1
1
11111100
11111111
11111111
11111110
11110110
11111100
0
11111111
11111100
11111111
1
11111111
11111011
11111100
1
0
11111110
0
0
0
0
11111101
11111101
11111110
0
100
0
11
11111100
11111100
11111010
11111011
11111111
10
100
10
11111110
0
0
0
0
11
11
0
11111111
0
0
0
0
11111110
11111110
11111111
11111111
0
11111010
11111000
11110100
11111011
11111011
11111101
0
11111111
100
100
0
0
100
0
11
10
110
1
0
0
0
0
0
11111111
11111110
11111111
11111011
11111010
11111011
11110110
11111100
10
100
1100
1000
0
100
100
11
0
1000
0
10
11
101
11111111
11111111
0
0
0
0
11111111
11111110
0
11111101
0
11111011
11111111
110
1001
1001
1000
1000
11111110
10
0
11
1
1
11
1
11111110
11111100
11111111
11111111
0
0
0
0
11111111
0
0
11111111
11111111
10
1011
1011
1001
1000
110
10
10
100
10
10
11111101
0
11111110
0
11111110
11111110
0
0
0
0
0
0
0
0
0
0
10
110
1100
1000
1000
1001
101
0
1
11111110
0
11111100
11111111
11111100
11111111
0
11111111
1
0
0
0
0
0
0
0
0
11111100
11111010
11111110
100
101
101
100
100
100
1
11111110
11111101
11111011
11111100
11111010
11111111
11111100
11111101
11111111
0
0
0
0
0
0
0
0
0
11111100
11111001
11111001
11111100
11111100
0
100
11
100
11111111
11111100
11111010
11111011
11111110
11111111
0
10
11111111
0
1
0
0
0
0
0
0
0
1
11111101
11111011
11111000
11110101
11110101
11111001
11111100
0
1
11111101
11111010
11111111
10
11111111
10
11111111
10
11111110
11111111
0
0
0
0
0
0
0
0
1
11111111
0
11111011
11111000
11110111
11111001
11111001
11111110
11111111
100
10
11111111
100
0
0
11111110
0
0
11111110
11111111
0
1
0
0
0
0
0
1
0
10
10
11111110
11111101
11111110
11111110
1
0
1
0
11111100
11111111
11111101
11111111
0
10
0
0
0
0
0
0
0
0
0
0
1
0
0
0
0
1
11111101
11111111
10
11111010
11111101
0
11111101
11111110
11111110
11111110
0
0
10
11
11
0
0
0
0
0
0
0
1
1
0
10
101
1010
1
10
1
1
101
11
11111111
11111101
11111111
0
1
11
11
100
11
1
0
0
0
0
0
0
0
0
11111101
0
11
11
11
100
0
1
0
0
11111110
11111111
11111010
11
1
11111111
0
1
1
0
0
0
0
0
0
0
0
11111111
0
11
1
0
0
1
11
11111101
11111100
11111111
11111110
11111111
0
0
11111110
1
1
0
0
0
0
0
0
0
0
0
0
0
1
0
0
0
0
0
11111111
10
0
11
0
0
1
0
11111101
0
0
0
0
0
0
0
0
0
0
0
0
0
0
0
0
0
0
11111111
1
10
0
1
0
0
0
0
0
0
0
0
0
0
0
0
0
