0
0
0
0
0
0
0
0
0
0
0
0
0
0
0
0
0
0
0
0
0
0
0
0
0
0
0
0
0
0
0
0
0
0
0
0
0
0
0
0
0
0
0
0
11111111
0
0
0
0
0
0
0
0
0
0
0
0
0
0
0
0
0
0
11111111
11111111
0
0
11111111
11111110
11111101
11111111
11111111
11111111
11111111
0
0
0
0
0
0
0
0
0
0
0
0
0
0
0
0
11111111
11111110
11111110
11111110
11111110
11111111
11111100
11111000
11111011
11111110
11111110
0
10
1
11111111
0
0
0
0
0
0
0
0
0
0
0
0
0
11111111
11111110
0
11111010
11111001
11111110
11111110
11111111
11111110
11111111
11111110
11111110
1
11111101
11111101
11111110
11111111
0
0
0
0
0
0
0
0
0
11111111
0
11111101
11111111
0
0
11111101
11111110
100
11111110
0
11111111
11111111
11111101
11111100
11111101
1
11111100
11111110
11111111
11111110
11111110
0
0
0
0
0
0
11111111
1
11111110
11111101
11111111
11111110
0
0
10
11111111
11111100
11111010
11111100
11111010
11111101
0
11111111
0
10
0
10
11111111
0
0
0
0
0
0
11111110
11111111
11111111
0
11111111
0
11
10
101
0
11111110
11111101
11111110
11111111
11111111
0
1
0
0
10
1
0
0
0
0
0
0
0
11111101
0
0
11111110
11111010
0
11111110
0
0
11111111
11
111
11
11
101
10
101
10
1
101
1000
11
0
0
0
0
0
0
11111111
11111110
1
11111110
11111100
11111101
11111001
1
10
100
10
110
101
100
1
100
1
111
10
11
11
11
0
0
0
0
0
0
11111111
11111100
11111110
11111111
11111001
11111010
0
1
11111111
11111101
11111010
100
10
10
100
1010
1010
101
0
0
100
110
0
0
0
0
0
0
0
1
11111111
11111111
0
0
11111100
11111111
11111111
11110000
11110110
11111110
0
11111111
11111111
10
11111110
11111100
11111111
11111111
0
10
0
0
0
0
0
0
11111111
11111110
11111110
11
101
0
10
10
1
11111110
11110111
0
11111111
11111101
11111100
11111011
11111100
11111001
11111101
11111100
11111110
0
1
0
0
0
0
0
11111111
0
0
0
11111111
11111100
0
0
10
11111110
1
0
0
100
0
11111110
0
11111101
11111110
11111101
0
0
11111111
11111111
0
0
0
0
0
11111111
0
100
101
100
11111110
11111100
101
0
0
11
110
110
0
0
1
11111111
0
0
10
0
11111111
0
0
0
0
0
11111111
1
100
110
101
1000
101
100
110
11110111
11
11
1
0
11111100
1
1
0
11111110
0
0
11111101
11111111
0
0
0
0
0
11111111
101
11
100
110
101
11
11
101
1
11111111
11111111
0
100
0
10
11111111
11111110
11111111
11111111
11111111
11111010
11111101
0
0
0
0
11111111
11111101
100
100
11
10
1000
100
1000
1000
1010
100
110
1
1
1
11111101
11111010
11111101
0
11111110
0
11111100
11111111
0
0
0
0
11111101
11111101
1
11111111
0
0
10
11111111
100
101
1
0
11111111
11111101
11111110
11111111
11111111
1
11111110
11111100
10
11111111
11111110
0
0
0
0
0
11111101
11111100
11111110
11111110
11111110
11111100
11111001
11110111
11110110
11111000
11111110
11111111
0
0
11111110
0
11
1
11111011
11111010
0
0
11111111
0
0
0
0
0
11111101
11111010
11111100
11111100
11111001
11110100
11111001
11110110
11110110
11110111
11111001
11111101
1
101
11111110
0
111
0
11111011
11111110
1
0
0
0
0
0
0
0
11111101
11111011
11111011
11111010
11111110
11111011
0
11111001
11111011
11111111
11111101
11111111
0
11111110
11111111
1
100
0
0
0
1
10
1
0
0
0
0
0
0
11111111
11111100
11111011
11111111
0
0
11111101
10
0
11111110
11111101
11111100
11111011
11111110
1
100
0
1
1
1
10
0
0
0
0
0
0
0
0
11111111
11111110
0
10
11111111
1
10
11111110
11111111
1
11111010
11111111
0
11111101
10
1
1
1
0
0
0
0
0
0
0
0
0
0
1
0
0
0
10
100
11
11111111
100
0
11111001
11111101
11111111
11111111
0
11111111
1
10
1
0
0
0
0
0
0
0
0
0
0
11111110
0
10
101
110
101
11
10
11111101
11111110
11111101
11111110
0
11111111
11111111
1
10
1
0
0
0
0
0
0
0
0
0
0
0
0
0
0
0
10
0
11111111
11111111
1
0
0
0
0
0
11111111
0
0
0
0
0
0
0
0
0
0
0
0
0
0
0
0
0
0
0
0
0
0
0
0
0
0
0
0
0
0
0
0
0
0
