0
0
0
0
0
0
0
0
0
0
0
0
0
0
0
0
0
0
0
0
0
0
0
0
0
0
0
0
0
0
0
0
0
0
0
0
0
0
0
0
0
0
0
0
0
0
0
0
1
1
0
0
0
0
0
0
0
0
0
0
0
0
0
0
0
0
0
0
1
10
1
0
1
10
10
1
0
0
1
0
0
0
0
0
0
0
0
0
0
0
0
0
0
0
0
0
0
11
11
10
0
10
1
10
100
0
1
1
0
0
0
0
0
0
0
0
0
0
0
1
1
10
11111010
11111100
11111111
11
11
11
0
11111110
1
10
0
101
100
11
11
1
0
0
0
0
0
0
0
0
0
1
1
0
11111100
11111110
0
0
11
1
11111100
0
1
0
11111100
11111011
11111111
0
0
1
1
0
0
0
0
1
1
1
0
11
100
0
0
0
1
100
11
0
11111110
11111110
0
10
0
1
0
100
11111111
0
0
0
0
0
0
10
10
1
0
1
1
11
0
11111101
11
1
10
111
10
1
1
11111110
0
0
0
11
10
0
0
0
0
0
0
10
0
0
0
11111011
11111110
11111111
11111011
11111100
0
11111111
10
1
11
11111111
10
11111011
11111101
10
10
110
1010
11
0
0
0
0
0
0
1
10
0
11111110
0
0
11111110
0
0
11111111
10
1
0
0
11111100
0
10
1
1
100
101
10
0
0
0
0
0
10
11
0
0
1
11111111
11111101
11111010
11111010
11111101
0
10
110
1
0
11111010
0
101
100
1
1
101
1
0
0
0
0
0
10
100
100
100
111
100
11
1
0
11
100
11
101
100
100
11111111
11111101
0
10
11111111
0
11
0
0
0
0
0
0
1
100
1000
1110
10000
1101
10100
10001
1110
1011
1011
11
1000
111
110
100
0
11111110
0
11111110
11
1
11111100
0
0
0
0
0
1
110
1001
1100
1011
1001
1000
1000
11
0
11111110
10
100
10
11
11
0
10
10
1
1
11111101
11111100
11111111
11111110
0
0
0
1
11
100
100
11111111
0
11111111
0
0
11111100
11111110
11111110
10
10
10
0
1
101
10
0
0
11111011
11111100
11111110
0
0
0
0
0
1
10
0
100
0
11111100
11111011
11111011
0
11110111
11111011
11111110
11
0
10
11
1
0
11111111
0
11111101
11111011
11111111
0
0
0
0
0
1
10
0
11111100
1
11111001
11111101
11111110
11111110
11111100
11111111
11111101
11111111
11111011
11111011
0
0
11111001
11111111
0
11111111
11111100
11111111
0
0
0
0
11111111
11111111
1
11111100
0
11111100
0
10
11111101
11111100
11
0
11111110
11111111
0
1
0
0
11111101
11111100
11111110
11111110
11111100
0
0
0
0
0
11111100
11111100
11111101
11111101
11111101
11111100
0
0
11111111
1
0
11111101
11
1
0
0
0
10
11111111
11111111
11111100
11111001
11111011
0
0
0
0
0
0
11111101
1
11111111
11111101
1
11111110
0
11111101
11
10
100
11111010
11111110
0
11111101
1
1
10
11111110
11111001
11111011
11111101
11111111
0
0
0
0
11111111
11111100
10
11111110
11111000
11111000
11111101
11111101
11111110
10
101
100
11111101
11111100
11111100
0
0
11111111
1
11111111
11111001
11111101
0
0
0
0
0
0
11111110
11111101
11111111
0
11111110
11111100
11111111
0
10
111
110
100
11111111
11111101
11111100
11111111
11111111
0
0
0
11111100
11111110
0
0
0
0
0
0
0
11111100
11111000
0
11111110
11111110
11111110
11111100
11111110
100
111
101
11
10
0
11111111
11111001
11111100
0
11111111
11111111
0
1
0
0
0
0
0
0
11111111
11111110
0
0
101
10
11111110
10
100
1011
1010
110
11
1000
11
0
0
0
11111111
1
1
1
0
0
0
0
0
1
0
0
11
10
0
11111110
10
10
100
111
111
1000
110
111
100
100
11
0
0
10
1
0
0
0
0
0
0
0
0
1
1
100
11
10
0
1
1
11
11
11
11
111
110
111
11
1
1
1
1
0
0
0
0
0
0
0
0
0
0
0
0
0
0
0
0
0
0
1
10
10
0
0
0
0
0
0
0
0
0
0
0
0
0
0
0
0
0
0
0
0
0
0
0
0
0
0
0
0
0
0
0
0
0
0
0
0
0
0
