0
0
0
0
0
0
0
0
0
0
0
0
0
0
0
0
0
0
0
0
0
0
0
0
0
0
0
0
0
0
0
0
0
0
0
0
0
0
0
0
0
0
0
0
0
0
0
0
0
0
0
0
0
0
0
0
0
0
0
0
0
0
0
0
0
0
0
0
0
11111111
0
11111111
0
0
1
0
0
0
0
0
0
0
0
0
0
0
0
0
0
0
0
0
0
0
0
0
11111111
11111110
0
0
0
10
11
1
1
0
0
0
0
0
0
0
0
0
0
0
0
0
0
0
11111111
11111111
11111111
11111111
0
0
10
1
1
0
1
10
10
10
1
1
0
0
0
0
0
0
0
0
0
0
0
11111111
11111111
0
0
10
1
1
11
11111110
11111110
1
101
110
110
11
10
1
0
0
0
0
0
0
0
1
10
11
11
1
1
0
11111111
0
0
11111111
0
0
11111110
10
111
1001
111
100
10
1
0
0
0
0
0
0
0
10
11
100
100
10
10
0
11111111
11111110
11111111
100
10
11111111
11111110
100
101
111
101
101
10
1
1
0
0
0
0
0
0
1
0
1
0
0
0
11111111
11111101
11111110
11111111
11111110
11111101
11111111
11
10
101
101
101
11
10
1
10
1
0
0
0
0
0
0
10
10
1
10
1
1
1
0
0
0
11111010
0
111
1001
110
11
100
10
1
1
0
0
0
0
0
0
0
1
1
10
11
11
11
11
0
11111110
11111101
11111001
11111001
11111111
101
110
110
11
11
1
0
0
0
0
0
0
0
0
0
0
1
0
0
0
0
10
11111110
11111111
0
11111110
11111000
0
1
1000
1000
11
10
1
11111111
11111110
1
0
0
0
0
0
0
0
0
11111111
11111111
0
0
1
1
1
11111111
1
11111100
11111110
11111111
1011
1000
10
1
1
0
0
0
11111111
0
0
0
0
0
0
11111111
11111110
11111110
0
11
100
100
111
10
110
0
0
0
1100
111
11
10
0
0
0
11111110
11111110
11111111
0
0
0
0
0
0
11111111
0
1
1
10
101
100
0
10
11111110
11
1
1011
1000
11
1
0
0
0
1
0
0
0
0
0
0
0
1
0
0
0
1
0
10
11111110
11111111
11111111
11111111
100
101
1100
101
11
1
10
0
10
1
11111111
11111111
0
0
0
0
0
0
1
0
0
0
0
0
11111110
100
10
11111100
11
110
1110
101
10
0
1
10
11
0
11111111
11111111
0
0
0
0
0
0
1
0
10
100
1
11111111
11
11
11111110
11110111
11111111
111
1000
100
10
0
0
10
1
11111111
11111110
11111111
0
0
0
0
0
0
0
10
11
101
11
1
11
0
11111111
11111111
1
111
1
11111110
11111110
11111100
11111110
11111111
11111111
11111110
11111110
0
0
0
0
0
0
0
1
10
10
110
1
101
0
0
11111111
11111110
11111110
11111111
11111101
11111101
11111101
11111111
11
1
0
11111111
11111110
11111111
0
0
0
0
0
0
11
10
1
10
1
11
0
11111100
11111101
11111100
0
11111100
11111100
11111111
11111110
0
10
1
1
0
0
0
0
0
0
0
0
0
10
1
1
11111111
11111110
11111110
1
0
11111111
0
0
0
1
0
11111111
11111101
11111111
0
0
0
0
0
0
0
0
0
0
0
0
1
0
11111101
11111011
0
1
0
10
1
0
10
0
11111101
11111101
11111011
11111111
10
1
0
0
0
0
0
0
0
0
0
0
0
11
101
0
0
0
11111111
101
11
11111110
0
11111111
0
11111111
11111110
0
1
0
0
0
0
0
0
0
0
0
0
0
0
0
1
10
10
11
11
10
100
11
100
10
10
0
0
0
0
0
0
0
0
0
0
0
0
0
0
0
0
0
0
0
11
10
10
0
11
110
100
11
1
1
0
0
0
0
0
0
0
0
0
0
0
0
0
0
0
0
0
0
0
0
1
1
0
0
0
0
0
0
0
0
0
0
0
0
0
0
0
0
0
0
0
0
0
0
0
0
0
0
0
0
0
0
0
0
0
0
0
0
0
0
0
0
0
0
