0
0
0
0
0
0
0
0
0
0
0
0
0
0
0
0
0
0
0
0
0
0
0
0
0
0
0
0
0
0
0
0
0
0
0
0
0
0
0
0
0
0
0
0
1
0
0
0
11111111
0
0
0
0
0
0
0
0
0
0
0
0
0
0
0
0
0
0
0
10
10
0
0
0
0
0
0
0
11111111
11111111
0
0
0
0
0
0
0
0
0
0
0
0
0
1
11
10
10
1000
111
110
100
11
100
11111101
11111100
11111101
11111100
11111100
11111101
11111111
0
0
0
0
0
0
0
0
0
0
0
11
111
1000
10
1
101
10
1
101
0
11
10
10
11111111
11111100
11111011
11111101
11111111
0
0
0
0
0
0
0
0
0
0
0
100
101
101
101
10
1
0
11
0
11111111
1
0
1
100
11111111
11111100
11111101
11111111
0
0
0
0
0
0
1
1
10
11111111
11
111
110
10
1010
110
101
1
0
1
11111101
1
11111111
10
11111110
11111101
11111110
0
0
0
0
0
0
1
11
11
11
10
1
101
11
0
110
1001
11
11111100
10
11111111
0
0
0
1
0
11111101
11111110
0
0
0
0
0
0
0
0
11111110
10
1
11
10
111
11
1
10
101
10
10
0
0
100
0
10
0
11111011
11111111
1
0
0
0
0
0
11111111
11111110
11111011
11111101
11111100
1
11111001
11110101
11110010
11101100
11110010
11111101
1
110
100
11111101
1
0
1
1
11111110
0
0
0
0
0
0
11111111
11111110
11111010
11111000
11110011
11101010
11100101
11100010
11100010
11100111
11110010
11110110
11111100
100
10
1
11111010
11111111
10
1
11111110
11111101
0
0
0
0
0
0
11111110
11111011
11110101
11110001
11101100
11101011
11100111
11110010
11111101
0
0
11111101
11111110
11111110
100
11
10
11111111
0
0
0
0
1
0
0
0
0
11111111
11111110
11111010
11110100
11110001
11110100
11111100
11111110
111
1000
110
0
11
11111101
10
11111110
101
0
0
11111110
11111101
11111110
0
1
0
0
0
0
0
0
11111101
11111011
11111100
0
101
11
111
1
1
101
0
11111110
0
0
11
0
11111111
0
11111111
11111110
11111111
0
0
0
0
0
0
0
0
1
1000
1010
1
101
1
1
0
11
10
11111111
1
0
100
11111101
100
10
11111011
11111011
11111110
0
10
0
0
0
0
1
11
100
101
0
11111011
0
0
0
11111101
0
11111101
1
1
11111011
0
11111101
11111100
11111111
11111100
0
1
11
10
0
0
0
0
1
110
100
10
11111111
11111111
1
1
0
0
11111111
1
11111101
0
101
10
0
0
0
11111110
0
11
11
1
0
0
0
11111111
0
10
10
11
11111110
1
11111110
11111011
11111110
0
11111101
1
0
0
0
0
0
11111101
11111111
11111110
0
1
11
1
0
0
0
0
11
0
10
11
1
10
101
10
1
0
11
11111111
11111111
0
1
0
0
0
0
0
11111011
0
11
1
0
0
0
11111111
11
10
1
11111111
10
11111101
100
0
11111011
0
100
0
11111110
1
0
11
11111111
0
101
11111111
11111111
11111111
1
0
0
0
0
0
10
101
11111111
11111110
11111110
11111110
0
11
10
1
1
101
0
11111110
11111010
1
0
0
10
0
11111110
0
0
0
0
0
0
0
1
11
10
0
11
10
11111101
10
11111101
11111111
0
0
11111101
1
10
10
0
0
0
0
1
10
0
0
0
0
0
0
0
0
10
0
0
11111111
11111001
11111111
0
11111110
11111110
1
10
1
11111111
11111110
0
11111111
11111110
11111111
1
1
0
0
0
0
0
0
0
0
11
0
11
11111110
0
11111110
11111111
11111110
10
11111101
0
11111111
11111110
0
11111110
11111010
11111100
0
0
0
0
0
0
0
0
0
0
0
0
0
1
100
11
0
11111111
0
11
0
11111111
11111110
1
0
11111111
0
0
0
0
0
0
0
0
0
0
0
0
0
0
0
1
100
110
101
100
11
11
1
0
0
0
11111111
0
0
11111111
11111111
0
0
0
0
0
0
0
0
0
0
0
0
0
100
100
100
0
0
1
1
0
0
0
0
0
0
0
0
0
0
0
0
0
0
0
0
0
0
0
0
0
0
0
0
0
0
0
0
0
0
0
0
0
0
0
0
0
0
0
0
0
