01100000 10000001 00011101 11111011 
10011111 00111100 11001111 01001011 
00000010 10011011 11111100 11101100 
01111110 11110111 11000111 00010001 

00100110 10011100 11110111 01011101 
00100100 10001010 11011010 10001011 
00111000 11110000 01001011 00101000 
01111010 00100010 10100100 10110000 

01101110 00010000 00000110 10001110 
11010111 11100011 01100001 11011100 
00110100 00101001 01001010 01010110 
11111000 11010111 11001101 00110010 

11010111 11011000 00110110 00000100 
11001100 00010000 11001111 11101111 
11110111 00111010 11010110 00011111 
01110111 11100110 10110101 11001110 

10100011 11001001 11111110 10000110 
01011001 11010100 00001010 00100011 
10000110 10100011 01111110 11001100 
01011111 00100100 01111101 00110111 

00110101 01100111 10010000 10111011 
00010001 11111110 01101100 01000100 
10101111 00111010 10011000 01100001 
10011110 11010100 00110000 11110100 

11001110 11010011 00000001 01100101 
10000001 01000010 00010101 11010010 
10111100 11001001 00010111 01001011 
10001001 10101101 01000101 10100010 

00110011 10111110 00110000 01111111 
10110100 10101100 10000010 10011010 
10111010 01100100 01011011 00101010 
11111101 00000010 11100110 01001110 


01100000 10000001 00011101 11111011 
10011111 00111100 11001111 01001011 
00000010 10011011 11111100 11101100 
01111110 11110111 11000111 00010001 

00100110 10011100 11110111 01011101 
00100100 10001010 11011010 10001011 
00111000 11110000 01001011 00101000 
01111010 00100010 10100100 10110000 

01101110 00010000 00000110 10001110 
11010111 11100011 01100001 11011100 
00110100 00101001 01001010 01010110 
11111000 11010111 11001101 00110010 

11010111 11011000 00110110 00000100 
11001100 00010000 11001111 11101111 
11110111 00111010 11010110 00011111 
01110111 11100110 10110101 11001110 

10100011 11001001 11111110 10000110 
01011001 11010100 00001010 00100011 
10000110 10100011 01111110 11001100 
01011111 00100100 01111101 00110111 

00110101 01100111 10010000 10111011 
00010001 11111110 01101100 01000100 
10101111 00111010 10011000 01100001 
10011110 11010100 00110000 11110100 

11001110 11010011 00000001 01100101 
10000001 01000010 00010101 11010010 
10111100 11001001 00010111 01001011 
10001001 10101101 01000101 10100010 

00110011 10111110 00110000 01111111 
10110100 10101100 10000010 10011010 
10111010 01100100 01011011 00101010 
11111101 00000010 11100110 01001110 


01100000 10000001 00011101 11111011 
10011111 00111100 11001111 01001011 
00000010 10011011 11111100 11101100 
01111110 11110111 11000111 00010001 

00100110 10011100 11110111 01011101 
00100100 10001010 11011010 10001011 
00111000 11110000 01001011 00101000 
01111010 00100010 10100100 10110000 

01101110 00010000 00000110 10001110 
11010111 11100011 01100001 11011100 
00110100 00101001 01001010 01010110 
11111000 11010111 11001101 00110010 

11010111 11011000 00110110 00000100 
11001100 00010000 11001111 11101111 
11110111 00111010 11010110 00011111 
01110111 11100110 10110101 11001110 

10100011 11001001 11111110 10000110 
01011001 11010100 00001010 00100011 
10000110 10100011 01111110 11001100 
01011111 00100100 01111101 00110111 

00110101 01100111 10010000 10111011 
00010001 11111110 01101100 01000100 
10101111 00111010 10011000 01100001 
10011110 11010100 00110000 11110100 

11001110 11010011 00000001 01100101 
10000001 01000010 00010101 11010010 
10111100 11001001 00010111 01001011 
10001001 10101101 01000101 10100010 

00110011 10111110 00110000 01111111 
10110100 10101100 10000010 10011010 
10111010 01100100 01011011 00101010 
11111101 00000010 11100110 01001110 


01100000 10000001 00011101 11111011 
10011111 00111100 11001111 01001011 
00000010 10011011 11111100 11101100 
01111110 11110111 11000111 00010001 

00100110 10011100 11110111 01011101 
00100100 10001010 11011010 10001011 
00111000 11110000 01001011 00101000 
01111010 00100010 10100100 10110000 

01101110 00010000 00000110 10001110 
11010111 11100011 01100001 11011100 
00110100 00101001 01001010 01010110 
11111000 11010111 11001101 00110010 

11010111 11011000 00110110 00000100 
11001100 00010000 11001111 11101111 
11110111 00111010 11010110 00011111 
01110111 11100110 10110101 11001110 

10100011 11001001 11111110 10000110 
01011001 11010100 00001010 00100011 
10000110 10100011 01111110 11001100 
01011111 00100100 01111101 00110111 

00110101 01100111 10010000 10111011 
00010001 11111110 01101100 01000100 
10101111 00111010 10011000 01100001 
10011110 11010100 00110000 11110100 

11001110 11010011 00000001 01100101 
10000001 01000010 00010101 11010010 
10111100 11001001 00010111 01001011 
10001001 10101101 01000101 10100010 

00110011 10111110 00110000 01111111 
10110100 10101100 10000010 10011010 
10111010 01100100 01011011 00101010 
11111101 00000010 11100110 01001110 



01100000 10000001 00011101 11111011 
10011111 00111100 11001111 01001011 
00000010 10011011 11111100 11101100 
01111110 11110111 11000111 00010001 

00100110 10011100 11110111 01011101 
00100100 10001010 11011010 10001011 
00111000 11110000 01001011 00101000 
01111010 00100010 10100100 10110000 

01101110 00010000 00000110 10001110 
11010111 11100011 01100001 11011100 
00110100 00101001 01001010 01010110 
11111000 11010111 11001101 00110010 

11010111 11011000 00110110 00000100 
11001100 00010000 11001111 11101111 
11110111 00111010 11010110 00011111 
01110111 11100110 10110101 11001110 

10100011 11001001 11111110 10000110 
01011001 11010100 00001010 00100011 
10000110 10100011 01111110 11001100 
01011111 00100100 01111101 00110111 

00110101 01100111 10010000 10111011 
00010001 11111110 01101100 01000100 
10101111 00111010 10011000 01100001 
10011110 11010100 00110000 11110100 

11001110 11010011 00000001 01100101 
10000001 01000010 00010101 11010010 
10111100 11001001 00010111 01001011 
10001001 10101101 01000101 10100010 

00110011 10111110 00110000 01111111 
10110100 10101100 10000010 10011010 
10111010 01100100 01011011 00101010 
11111101 00000010 11100110 01001110 


01100000 10000001 00011101 11111011 
10011111 00111100 11001111 01001011 
00000010 10011011 11111100 11101100 
01111110 11110111 11000111 00010001 

00100110 10011100 11110111 01011101 
00100100 10001010 11011010 10001011 
00111000 11110000 01001011 00101000 
01111010 00100010 10100100 10110000 

01101110 00010000 00000110 10001110 
11010111 11100011 01100001 11011100 
00110100 00101001 01001010 01010110 
11111000 11010111 11001101 00110010 

11010111 11011000 00110110 00000100 
11001100 00010000 11001111 11101111 
11110111 00111010 11010110 00011111 
01110111 11100110 10110101 11001110 

10100011 11001001 11111110 10000110 
01011001 11010100 00001010 00100011 
10000110 10100011 01111110 11001100 
01011111 00100100 01111101 00110111 

00110101 01100111 10010000 10111011 
00010001 11111110 01101100 01000100 
10101111 00111010 10011000 01100001 
10011110 11010100 00110000 11110100 

11001110 11010011 00000001 01100101 
10000001 01000010 00010101 11010010 
10111100 11001001 00010111 01001011 
10001001 10101101 01000101 10100010 

00110011 10111110 00110000 01111111 
10110100 10101100 10000010 10011010 
10111010 01100100 01011011 00101010 
11111101 00000010 11100110 01001110 


01100000 10000001 00011101 11111011 
10011111 00111100 11001111 01001011 
00000010 10011011 11111100 11101100 
01111110 11110111 11000111 00010001 

00100110 10011100 11110111 01011101 
00100100 10001010 11011010 10001011 
00111000 11110000 01001011 00101000 
01111010 00100010 10100100 10110000 

01101110 00010000 00000110 10001110 
11010111 11100011 01100001 11011100 
00110100 00101001 01001010 01010110 
11111000 11010111 11001101 00110010 

11010111 11011000 00110110 00000100 
11001100 00010000 11001111 11101111 
11110111 00111010 11010110 00011111 
01110111 11100110 10110101 11001110 

10100011 11001001 11111110 10000110 
01011001 11010100 00001010 00100011 
10000110 10100011 01111110 11001100 
01011111 00100100 01111101 00110111 

00110101 01100111 10010000 10111011 
00010001 11111110 01101100 01000100 
10101111 00111010 10011000 01100001 
10011110 11010100 00110000 11110100 

11001110 11010011 00000001 01100101 
10000001 01000010 00010101 11010010 
10111100 11001001 00010111 01001011 
10001001 10101101 01000101 10100010 

00110011 10111110 00110000 01111111 
10110100 10101100 10000010 10011010 
10111010 01100100 01011011 00101010 
11111101 00000010 11100110 01001110 


01100000 10000001 00011101 11111011 
10011111 00111100 11001111 01001011 
00000010 10011011 11111100 11101100 
01111110 11110111 11000111 00010001 

00100110 10011100 11110111 01011101 
00100100 10001010 11011010 10001011 
00111000 11110000 01001011 00101000 
01111010 00100010 10100100 10110000 

01101110 00010000 00000110 10001110 
11010111 11100011 01100001 11011100 
00110100 00101001 01001010 01010110 
11111000 11010111 11001101 00110010 

11010111 11011000 00110110 00000100 
11001100 00010000 11001111 11101111 
11110111 00111010 11010110 00011111 
01110111 11100110 10110101 11001110 

10100011 11001001 11111110 10000110 
01011001 11010100 00001010 00100011 
10000110 10100011 01111110 11001100 
01011111 00100100 01111101 00110111 

00110101 01100111 10010000 10111011 
00010001 11111110 01101100 01000100 
10101111 00111010 10011000 01100001 
10011110 11010100 00110000 11110100 

11001110 11010011 00000001 01100101 
10000001 01000010 00010101 11010010 
10111100 11001001 00010111 01001011 
10001001 10101101 01000101 10100010 

00110011 10111110 00110000 01111111 
10110100 10101100 10000010 10011010 
10111010 01100100 01011011 00101010 
11111101 00000010 11100110 01001110 



01100000 10000001 00011101 11111011 
10011111 00111100 11001111 01001011 
00000010 10011011 11111100 11101100 
01111110 11110111 11000111 00010001 

00100110 10011100 11110111 01011101 
00100100 10001010 11011010 10001011 
00111000 11110000 01001011 00101000 
01111010 00100010 10100100 10110000 

01101110 00010000 00000110 10001110 
11010111 11100011 01100001 11011100 
00110100 00101001 01001010 01010110 
11111000 11010111 11001101 00110010 

11010111 11011000 00110110 00000100 
11001100 00010000 11001111 11101111 
11110111 00111010 11010110 00011111 
01110111 11100110 10110101 11001110 

10100011 11001001 11111110 10000110 
01011001 11010100 00001010 00100011 
10000110 10100011 01111110 11001100 
01011111 00100100 01111101 00110111 

00110101 01100111 10010000 10111011 
00010001 11111110 01101100 01000100 
10101111 00111010 10011000 01100001 
10011110 11010100 00110000 11110100 

11001110 11010011 00000001 01100101 
10000001 01000010 00010101 11010010 
10111100 11001001 00010111 01001011 
10001001 10101101 01000101 10100010 

00110011 10111110 00110000 01111111 
10110100 10101100 10000010 10011010 
10111010 01100100 01011011 00101010 
11111101 00000010 11100110 01001110 


01100000 10000001 00011101 11111011 
10011111 00111100 11001111 01001011 
00000010 10011011 11111100 11101100 
01111110 11110111 11000111 00010001 

00100110 10011100 11110111 01011101 
00100100 10001010 11011010 10001011 
00111000 11110000 01001011 00101000 
01111010 00100010 10100100 10110000 

01101110 00010000 00000110 10001110 
11010111 11100011 01100001 11011100 
00110100 00101001 01001010 01010110 
11111000 11010111 11001101 00110010 

11010111 11011000 00110110 00000100 
11001100 00010000 11001111 11101111 
11110111 00111010 11010110 00011111 
01110111 11100110 10110101 11001110 

10100011 11001001 11111110 10000110 
01011001 11010100 00001010 00100011 
10000110 10100011 01111110 11001100 
01011111 00100100 01111101 00110111 

00110101 01100111 10010000 10111011 
00010001 11111110 01101100 01000100 
10101111 00111010 10011000 01100001 
10011110 11010100 00110000 11110100 

11001110 11010011 00000001 01100101 
10000001 01000010 00010101 11010010 
10111100 11001001 00010111 01001011 
10001001 10101101 01000101 10100010 

00110011 10111110 00110000 01111111 
10110100 10101100 10000010 10011010 
10111010 01100100 01011011 00101010 
11111101 00000010 11100110 01001110 


01100000 10000001 00011101 11111011 
10011111 00111100 11001111 01001011 
00000010 10011011 11111100 11101100 
01111110 11110111 11000111 00010001 

00100110 10011100 11110111 01011101 
00100100 10001010 11011010 10001011 
00111000 11110000 01001011 00101000 
01111010 00100010 10100100 10110000 

01101110 00010000 00000110 10001110 
11010111 11100011 01100001 11011100 
00110100 00101001 01001010 01010110 
11111000 11010111 11001101 00110010 

11010111 11011000 00110110 00000100 
11001100 00010000 11001111 11101111 
11110111 00111010 11010110 00011111 
01110111 11100110 10110101 11001110 

10100011 11001001 11111110 10000110 
01011001 11010100 00001010 00100011 
10000110 10100011 01111110 11001100 
01011111 00100100 01111101 00110111 

00110101 01100111 10010000 10111011 
00010001 11111110 01101100 01000100 
10101111 00111010 10011000 01100001 
10011110 11010100 00110000 11110100 

11001110 11010011 00000001 01100101 
10000001 01000010 00010101 11010010 
10111100 11001001 00010111 01001011 
10001001 10101101 01000101 10100010 

00110011 10111110 00110000 01111111 
10110100 10101100 10000010 10011010 
10111010 01100100 01011011 00101010 
11111101 00000010 11100110 01001110 


01100000 10000001 00011101 11111011 
10011111 00111100 11001111 01001011 
00000010 10011011 11111100 11101100 
01111110 11110111 11000111 00010001 

00100110 10011100 11110111 01011101 
00100100 10001010 11011010 10001011 
00111000 11110000 01001011 00101000 
01111010 00100010 10100100 10110000 

01101110 00010000 00000110 10001110 
11010111 11100011 01100001 11011100 
00110100 00101001 01001010 01010110 
11111000 11010111 11001101 00110010 

11010111 11011000 00110110 00000100 
11001100 00010000 11001111 11101111 
11110111 00111010 11010110 00011111 
01110111 11100110 10110101 11001110 

10100011 11001001 11111110 10000110 
01011001 11010100 00001010 00100011 
10000110 10100011 01111110 11001100 
01011111 00100100 01111101 00110111 

00110101 01100111 10010000 10111011 
00010001 11111110 01101100 01000100 
10101111 00111010 10011000 01100001 
10011110 11010100 00110000 11110100 

11001110 11010011 00000001 01100101 
10000001 01000010 00010101 11010010 
10111100 11001001 00010111 01001011 
10001001 10101101 01000101 10100010 

00110011 10111110 00110000 01111111 
10110100 10101100 10000010 10011010 
10111010 01100100 01011011 00101010 
11111101 00000010 11100110 01001110 



01100000 10000001 00011101 11111011 
10011111 00111100 11001111 01001011 
00000010 10011011 11111100 11101100 
01111110 11110111 11000111 00010001 

00100110 10011100 11110111 01011101 
00100100 10001010 11011010 10001011 
00111000 11110000 01001011 00101000 
01111010 00100010 10100100 10110000 

01101110 00010000 00000110 10001110 
11010111 11100011 01100001 11011100 
00110100 00101001 01001010 01010110 
11111000 11010111 11001101 00110010 

11010111 11011000 00110110 00000100 
11001100 00010000 11001111 11101111 
11110111 00111010 11010110 00011111 
01110111 11100110 10110101 11001110 

10100011 11001001 11111110 10000110 
01011001 11010100 00001010 00100011 
10000110 10100011 01111110 11001100 
01011111 00100100 01111101 00110111 

00110101 01100111 10010000 10111011 
00010001 11111110 01101100 01000100 
10101111 00111010 10011000 01100001 
10011110 11010100 00110000 11110100 

11001110 11010011 00000001 01100101 
10000001 01000010 00010101 11010010 
10111100 11001001 00010111 01001011 
10001001 10101101 01000101 10100010 

00110011 10111110 00110000 01111111 
10110100 10101100 10000010 10011010 
10111010 01100100 01011011 00101010 
11111101 00000010 11100110 01001110 


01100000 10000001 00011101 11111011 
10011111 00111100 11001111 01001011 
00000010 10011011 11111100 11101100 
01111110 11110111 11000111 00010001 

00100110 10011100 11110111 01011101 
00100100 10001010 11011010 10001011 
00111000 11110000 01001011 00101000 
01111010 00100010 10100100 10110000 

01101110 00010000 00000110 10001110 
11010111 11100011 01100001 11011100 
00110100 00101001 01001010 01010110 
11111000 11010111 11001101 00110010 

11010111 11011000 00110110 00000100 
11001100 00010000 11001111 11101111 
11110111 00111010 11010110 00011111 
01110111 11100110 10110101 11001110 

10100011 11001001 11111110 10000110 
01011001 11010100 00001010 00100011 
10000110 10100011 01111110 11001100 
01011111 00100100 01111101 00110111 

00110101 01100111 10010000 10111011 
00010001 11111110 01101100 01000100 
10101111 00111010 10011000 01100001 
10011110 11010100 00110000 11110100 

11001110 11010011 00000001 01100101 
10000001 01000010 00010101 11010010 
10111100 11001001 00010111 01001011 
10001001 10101101 01000101 10100010 

00110011 10111110 00110000 01111111 
10110100 10101100 10000010 10011010 
10111010 01100100 01011011 00101010 
11111101 00000010 11100110 01001110 


01100000 10000001 00011101 11111011 
10011111 00111100 11001111 01001011 
00000010 10011011 11111100 11101100 
01111110 11110111 11000111 00010001 

00100110 10011100 11110111 01011101 
00100100 10001010 11011010 10001011 
00111000 11110000 01001011 00101000 
01111010 00100010 10100100 10110000 

01101110 00010000 00000110 10001110 
11010111 11100011 01100001 11011100 
00110100 00101001 01001010 01010110 
11111000 11010111 11001101 00110010 

11010111 11011000 00110110 00000100 
11001100 00010000 11001111 11101111 
11110111 00111010 11010110 00011111 
01110111 11100110 10110101 11001110 

10100011 11001001 11111110 10000110 
01011001 11010100 00001010 00100011 
10000110 10100011 01111110 11001100 
01011111 00100100 01111101 00110111 

00110101 01100111 10010000 10111011 
00010001 11111110 01101100 01000100 
10101111 00111010 10011000 01100001 
10011110 11010100 00110000 11110100 

11001110 11010011 00000001 01100101 
10000001 01000010 00010101 11010010 
10111100 11001001 00010111 01001011 
10001001 10101101 01000101 10100010 

00110011 10111110 00110000 01111111 
10110100 10101100 10000010 10011010 
10111010 01100100 01011011 00101010 
11111101 00000010 11100110 01001110 


01100000 10000001 00011101 11111011 
10011111 00111100 11001111 01001011 
00000010 10011011 11111100 11101100 
01111110 11110111 11000111 00010001 

00100110 10011100 11110111 01011101 
00100100 10001010 11011010 10001011 
00111000 11110000 01001011 00101000 
01111010 00100010 10100100 10110000 

01101110 00010000 00000110 10001110 
11010111 11100011 01100001 11011100 
00110100 00101001 01001010 01010110 
11111000 11010111 11001101 00110010 

11010111 11011000 00110110 00000100 
11001100 00010000 11001111 11101111 
11110111 00111010 11010110 00011111 
01110111 11100110 10110101 11001110 

10100011 11001001 11111110 10000110 
01011001 11010100 00001010 00100011 
10000110 10100011 01111110 11001100 
01011111 00100100 01111101 00110111 

00110101 01100111 10010000 10111011 
00010001 11111110 01101100 01000100 
10101111 00111010 10011000 01100001 
10011110 11010100 00110000 11110100 

11001110 11010011 00000001 01100101 
10000001 01000010 00010101 11010010 
10111100 11001001 00010111 01001011 
10001001 10101101 01000101 10100010 

00110011 10111110 00110000 01111111 
10110100 10101100 10000010 10011010 
10111010 01100100 01011011 00101010 
11111101 00000010 11100110 01001110 



01100000 10000001 00011101 11111011 
10011111 00111100 11001111 01001011 
00000010 10011011 11111100 11101100 
01111110 11110111 11000111 00010001 

00100110 10011100 11110111 01011101 
00100100 10001010 11011010 10001011 
00111000 11110000 01001011 00101000 
01111010 00100010 10100100 10110000 

01101110 00010000 00000110 10001110 
11010111 11100011 01100001 11011100 
00110100 00101001 01001010 01010110 
11111000 11010111 11001101 00110010 

11010111 11011000 00110110 00000100 
11001100 00010000 11001111 11101111 
11110111 00111010 11010110 00011111 
01110111 11100110 10110101 11001110 

10100011 11001001 11111110 10000110 
01011001 11010100 00001010 00100011 
10000110 10100011 01111110 11001100 
01011111 00100100 01111101 00110111 

00110101 01100111 10010000 10111011 
00010001 11111110 01101100 01000100 
10101111 00111010 10011000 01100001 
10011110 11010100 00110000 11110100 

11001110 11010011 00000001 01100101 
10000001 01000010 00010101 11010010 
10111100 11001001 00010111 01001011 
10001001 10101101 01000101 10100010 

00110011 10111110 00110000 01111111 
10110100 10101100 10000010 10011010 
10111010 01100100 01011011 00101010 
11111101 00000010 11100110 01001110 


01100000 10000001 00011101 11111011 
10011111 00111100 11001111 01001011 
00000010 10011011 11111100 11101100 
01111110 11110111 11000111 00010001 

00100110 10011100 11110111 01011101 
00100100 10001010 11011010 10001011 
00111000 11110000 01001011 00101000 
01111010 00100010 10100100 10110000 

01101110 00010000 00000110 10001110 
11010111 11100011 01100001 11011100 
00110100 00101001 01001010 01010110 
11111000 11010111 11001101 00110010 

11010111 11011000 00110110 00000100 
11001100 00010000 11001111 11101111 
11110111 00111010 11010110 00011111 
01110111 11100110 10110101 11001110 

10100011 11001001 11111110 10000110 
01011001 11010100 00001010 00100011 
10000110 10100011 01111110 11001100 
01011111 00100100 01111101 00110111 

00110101 01100111 10010000 10111011 
00010001 11111110 01101100 01000100 
10101111 00111010 10011000 01100001 
10011110 11010100 00110000 11110100 

11001110 11010011 00000001 01100101 
10000001 01000010 00010101 11010010 
10111100 11001001 00010111 01001011 
10001001 10101101 01000101 10100010 

00110011 10111110 00110000 01111111 
10110100 10101100 10000010 10011010 
10111010 01100100 01011011 00101010 
11111101 00000010 11100110 01001110 


01100000 10000001 00011101 11111011 
10011111 00111100 11001111 01001011 
00000010 10011011 11111100 11101100 
01111110 11110111 11000111 00010001 

00100110 10011100 11110111 01011101 
00100100 10001010 11011010 10001011 
00111000 11110000 01001011 00101000 
01111010 00100010 10100100 10110000 

01101110 00010000 00000110 10001110 
11010111 11100011 01100001 11011100 
00110100 00101001 01001010 01010110 
11111000 11010111 11001101 00110010 

11010111 11011000 00110110 00000100 
11001100 00010000 11001111 11101111 
11110111 00111010 11010110 00011111 
01110111 11100110 10110101 11001110 

10100011 11001001 11111110 10000110 
01011001 11010100 00001010 00100011 
10000110 10100011 01111110 11001100 
01011111 00100100 01111101 00110111 

00110101 01100111 10010000 10111011 
00010001 11111110 01101100 01000100 
10101111 00111010 10011000 01100001 
10011110 11010100 00110000 11110100 

11001110 11010011 00000001 01100101 
10000001 01000010 00010101 11010010 
10111100 11001001 00010111 01001011 
10001001 10101101 01000101 10100010 

00110011 10111110 00110000 01111111 
10110100 10101100 10000010 10011010 
10111010 01100100 01011011 00101010 
11111101 00000010 11100110 01001110 


01100000 10000001 00011101 11111011 
10011111 00111100 11001111 01001011 
00000010 10011011 11111100 11101100 
01111110 11110111 11000111 00010001 

00100110 10011100 11110111 01011101 
00100100 10001010 11011010 10001011 
00111000 11110000 01001011 00101000 
01111010 00100010 10100100 10110000 

01101110 00010000 00000110 10001110 
11010111 11100011 01100001 11011100 
00110100 00101001 01001010 01010110 
11111000 11010111 11001101 00110010 

11010111 11011000 00110110 00000100 
11001100 00010000 11001111 11101111 
11110111 00111010 11010110 00011111 
01110111 11100110 10110101 11001110 

10100011 11001001 11111110 10000110 
01011001 11010100 00001010 00100011 
10000110 10100011 01111110 11001100 
01011111 00100100 01111101 00110111 

00110101 01100111 10010000 10111011 
00010001 11111110 01101100 01000100 
10101111 00111010 10011000 01100001 
10011110 11010100 00110000 11110100 

11001110 11010011 00000001 01100101 
10000001 01000010 00010101 11010010 
10111100 11001001 00010111 01001011 
10001001 10101101 01000101 10100010 

00110011 10111110 00110000 01111111 
10110100 10101100 10000010 10011010 
10111010 01100100 01011011 00101010 
11111101 00000010 11100110 01001110 



01100000 10000001 00011101 11111011 
10011111 00111100 11001111 01001011 
00000010 10011011 11111100 11101100 
01111110 11110111 11000111 00010001 

00100110 10011100 11110111 01011101 
00100100 10001010 11011010 10001011 
00111000 11110000 01001011 00101000 
01111010 00100010 10100100 10110000 

01101110 00010000 00000110 10001110 
11010111 11100011 01100001 11011100 
00110100 00101001 01001010 01010110 
11111000 11010111 11001101 00110010 

11010111 11011000 00110110 00000100 
11001100 00010000 11001111 11101111 
11110111 00111010 11010110 00011111 
01110111 11100110 10110101 11001110 

10100011 11001001 11111110 10000110 
01011001 11010100 00001010 00100011 
10000110 10100011 01111110 11001100 
01011111 00100100 01111101 00110111 

00110101 01100111 10010000 10111011 
00010001 11111110 01101100 01000100 
10101111 00111010 10011000 01100001 
10011110 11010100 00110000 11110100 

11001110 11010011 00000001 01100101 
10000001 01000010 00010101 11010010 
10111100 11001001 00010111 01001011 
10001001 10101101 01000101 10100010 

00110011 10111110 00110000 01111111 
10110100 10101100 10000010 10011010 
10111010 01100100 01011011 00101010 
11111101 00000010 11100110 01001110 


01100000 10000001 00011101 11111011 
10011111 00111100 11001111 01001011 
00000010 10011011 11111100 11101100 
01111110 11110111 11000111 00010001 

00100110 10011100 11110111 01011101 
00100100 10001010 11011010 10001011 
00111000 11110000 01001011 00101000 
01111010 00100010 10100100 10110000 

01101110 00010000 00000110 10001110 
11010111 11100011 01100001 11011100 
00110100 00101001 01001010 01010110 
11111000 11010111 11001101 00110010 

11010111 11011000 00110110 00000100 
11001100 00010000 11001111 11101111 
11110111 00111010 11010110 00011111 
01110111 11100110 10110101 11001110 

10100011 11001001 11111110 10000110 
01011001 11010100 00001010 00100011 
10000110 10100011 01111110 11001100 
01011111 00100100 01111101 00110111 

00110101 01100111 10010000 10111011 
00010001 11111110 01101100 01000100 
10101111 00111010 10011000 01100001 
10011110 11010100 00110000 11110100 

11001110 11010011 00000001 01100101 
10000001 01000010 00010101 11010010 
10111100 11001001 00010111 01001011 
10001001 10101101 01000101 10100010 

00110011 10111110 00110000 01111111 
10110100 10101100 10000010 10011010 
10111010 01100100 01011011 00101010 
11111101 00000010 11100110 01001110 


01100000 10000001 00011101 11111011 
10011111 00111100 11001111 01001011 
00000010 10011011 11111100 11101100 
01111110 11110111 11000111 00010001 

00100110 10011100 11110111 01011101 
00100100 10001010 11011010 10001011 
00111000 11110000 01001011 00101000 
01111010 00100010 10100100 10110000 

01101110 00010000 00000110 10001110 
11010111 11100011 01100001 11011100 
00110100 00101001 01001010 01010110 
11111000 11010111 11001101 00110010 

11010111 11011000 00110110 00000100 
11001100 00010000 11001111 11101111 
11110111 00111010 11010110 00011111 
01110111 11100110 10110101 11001110 

10100011 11001001 11111110 10000110 
01011001 11010100 00001010 00100011 
10000110 10100011 01111110 11001100 
01011111 00100100 01111101 00110111 

00110101 01100111 10010000 10111011 
00010001 11111110 01101100 01000100 
10101111 00111010 10011000 01100001 
10011110 11010100 00110000 11110100 

11001110 11010011 00000001 01100101 
10000001 01000010 00010101 11010010 
10111100 11001001 00010111 01001011 
10001001 10101101 01000101 10100010 

00110011 10111110 00110000 01111111 
10110100 10101100 10000010 10011010 
10111010 01100100 01011011 00101010 
11111101 00000010 11100110 01001110 


01100000 10000001 00011101 11111011 
10011111 00111100 11001111 01001011 
00000010 10011011 11111100 11101100 
01111110 11110111 11000111 00010001 

00100110 10011100 11110111 01011101 
00100100 10001010 11011010 10001011 
00111000 11110000 01001011 00101000 
01111010 00100010 10100100 10110000 

01101110 00010000 00000110 10001110 
11010111 11100011 01100001 11011100 
00110100 00101001 01001010 01010110 
11111000 11010111 11001101 00110010 

11010111 11011000 00110110 00000100 
11001100 00010000 11001111 11101111 
11110111 00111010 11010110 00011111 
01110111 11100110 10110101 11001110 

10100011 11001001 11111110 10000110 
01011001 11010100 00001010 00100011 
10000110 10100011 01111110 11001100 
01011111 00100100 01111101 00110111 

00110101 01100111 10010000 10111011 
00010001 11111110 01101100 01000100 
10101111 00111010 10011000 01100001 
10011110 11010100 00110000 11110100 

11001110 11010011 00000001 01100101 
10000001 01000010 00010101 11010010 
10111100 11001001 00010111 01001011 
10001001 10101101 01000101 10100010 

00110011 10111110 00110000 01111111 
10110100 10101100 10000010 10011010 
10111010 01100100 01011011 00101010 
11111101 00000010 11100110 01001110 



01100000 10000001 00011101 11111011 
10011111 00111100 11001111 01001011 
00000010 10011011 11111100 11101100 
01111110 11110111 11000111 00010001 

00100110 10011100 11110111 01011101 
00100100 10001010 11011010 10001011 
00111000 11110000 01001011 00101000 
01111010 00100010 10100100 10110000 

01101110 00010000 00000110 10001110 
11010111 11100011 01100001 11011100 
00110100 00101001 01001010 01010110 
11111000 11010111 11001101 00110010 

11010111 11011000 00110110 00000100 
11001100 00010000 11001111 11101111 
11110111 00111010 11010110 00011111 
01110111 11100110 10110101 11001110 

10100011 11001001 11111110 10000110 
01011001 11010100 00001010 00100011 
10000110 10100011 01111110 11001100 
01011111 00100100 01111101 00110111 

00110101 01100111 10010000 10111011 
00010001 11111110 01101100 01000100 
10101111 00111010 10011000 01100001 
10011110 11010100 00110000 11110100 

11001110 11010011 00000001 01100101 
10000001 01000010 00010101 11010010 
10111100 11001001 00010111 01001011 
10001001 10101101 01000101 10100010 

00110011 10111110 00110000 01111111 
10110100 10101100 10000010 10011010 
10111010 01100100 01011011 00101010 
11111101 00000010 11100110 01001110 


01100000 10000001 00011101 11111011 
10011111 00111100 11001111 01001011 
00000010 10011011 11111100 11101100 
01111110 11110111 11000111 00010001 

00100110 10011100 11110111 01011101 
00100100 10001010 11011010 10001011 
00111000 11110000 01001011 00101000 
01111010 00100010 10100100 10110000 

01101110 00010000 00000110 10001110 
11010111 11100011 01100001 11011100 
00110100 00101001 01001010 01010110 
11111000 11010111 11001101 00110010 

11010111 11011000 00110110 00000100 
11001100 00010000 11001111 11101111 
11110111 00111010 11010110 00011111 
01110111 11100110 10110101 11001110 

10100011 11001001 11111110 10000110 
01011001 11010100 00001010 00100011 
10000110 10100011 01111110 11001100 
01011111 00100100 01111101 00110111 

00110101 01100111 10010000 10111011 
00010001 11111110 01101100 01000100 
10101111 00111010 10011000 01100001 
10011110 11010100 00110000 11110100 

11001110 11010011 00000001 01100101 
10000001 01000010 00010101 11010010 
10111100 11001001 00010111 01001011 
10001001 10101101 01000101 10100010 

00110011 10111110 00110000 01111111 
10110100 10101100 10000010 10011010 
10111010 01100100 01011011 00101010 
11111101 00000010 11100110 01001110 


01100000 10000001 00011101 11111011 
10011111 00111100 11001111 01001011 
00000010 10011011 11111100 11101100 
01111110 11110111 11000111 00010001 

00100110 10011100 11110111 01011101 
00100100 10001010 11011010 10001011 
00111000 11110000 01001011 00101000 
01111010 00100010 10100100 10110000 

01101110 00010000 00000110 10001110 
11010111 11100011 01100001 11011100 
00110100 00101001 01001010 01010110 
11111000 11010111 11001101 00110010 

11010111 11011000 00110110 00000100 
11001100 00010000 11001111 11101111 
11110111 00111010 11010110 00011111 
01110111 11100110 10110101 11001110 

10100011 11001001 11111110 10000110 
01011001 11010100 00001010 00100011 
10000110 10100011 01111110 11001100 
01011111 00100100 01111101 00110111 

00110101 01100111 10010000 10111011 
00010001 11111110 01101100 01000100 
10101111 00111010 10011000 01100001 
10011110 11010100 00110000 11110100 

11001110 11010011 00000001 01100101 
10000001 01000010 00010101 11010010 
10111100 11001001 00010111 01001011 
10001001 10101101 01000101 10100010 

00110011 10111110 00110000 01111111 
10110100 10101100 10000010 10011010 
10111010 01100100 01011011 00101010 
11111101 00000010 11100110 01001110 


01100000 10000001 00011101 11111011 
10011111 00111100 11001111 01001011 
00000010 10011011 11111100 11101100 
01111110 11110111 11000111 00010001 

00100110 10011100 11110111 01011101 
00100100 10001010 11011010 10001011 
00111000 11110000 01001011 00101000 
01111010 00100010 10100100 10110000 

01101110 00010000 00000110 10001110 
11010111 11100011 01100001 11011100 
00110100 00101001 01001010 01010110 
11111000 11010111 11001101 00110010 

11010111 11011000 00110110 00000100 
11001100 00010000 11001111 11101111 
11110111 00111010 11010110 00011111 
01110111 11100110 10110101 11001110 

10100011 11001001 11111110 10000110 
01011001 11010100 00001010 00100011 
10000110 10100011 01111110 11001100 
01011111 00100100 01111101 00110111 

00110101 01100111 10010000 10111011 
00010001 11111110 01101100 01000100 
10101111 00111010 10011000 01100001 
10011110 11010100 00110000 11110100 

11001110 11010011 00000001 01100101 
10000001 01000010 00010101 11010010 
10111100 11001001 00010111 01001011 
10001001 10101101 01000101 10100010 

00110011 10111110 00110000 01111111 
10110100 10101100 10000010 10011010 
10111010 01100100 01011011 00101010 
11111101 00000010 11100110 01001110 



01100000 10000001 00011101 11111011 
10011111 00111100 11001111 01001011 
00000010 10011011 11111100 11101100 
01111110 11110111 11000111 00010001 

00100110 10011100 11110111 01011101 
00100100 10001010 11011010 10001011 
00111000 11110000 01001011 00101000 
01111010 00100010 10100100 10110000 

01101110 00010000 00000110 10001110 
11010111 11100011 01100001 11011100 
00110100 00101001 01001010 01010110 
11111000 11010111 11001101 00110010 

11010111 11011000 00110110 00000100 
11001100 00010000 11001111 11101111 
11110111 00111010 11010110 00011111 
01110111 11100110 10110101 11001110 

10100011 11001001 11111110 10000110 
01011001 11010100 00001010 00100011 
10000110 10100011 01111110 11001100 
01011111 00100100 01111101 00110111 

00110101 01100111 10010000 10111011 
00010001 11111110 01101100 01000100 
10101111 00111010 10011000 01100001 
10011110 11010100 00110000 11110100 

11001110 11010011 00000001 01100101 
10000001 01000010 00010101 11010010 
10111100 11001001 00010111 01001011 
10001001 10101101 01000101 10100010 

00110011 10111110 00110000 01111111 
10110100 10101100 10000010 10011010 
10111010 01100100 01011011 00101010 
11111101 00000010 11100110 01001110 


01100000 10000001 00011101 11111011 
10011111 00111100 11001111 01001011 
00000010 10011011 11111100 11101100 
01111110 11110111 11000111 00010001 

00100110 10011100 11110111 01011101 
00100100 10001010 11011010 10001011 
00111000 11110000 01001011 00101000 
01111010 00100010 10100100 10110000 

01101110 00010000 00000110 10001110 
11010111 11100011 01100001 11011100 
00110100 00101001 01001010 01010110 
11111000 11010111 11001101 00110010 

11010111 11011000 00110110 00000100 
11001100 00010000 11001111 11101111 
11110111 00111010 11010110 00011111 
01110111 11100110 10110101 11001110 

10100011 11001001 11111110 10000110 
01011001 11010100 00001010 00100011 
10000110 10100011 01111110 11001100 
01011111 00100100 01111101 00110111 

00110101 01100111 10010000 10111011 
00010001 11111110 01101100 01000100 
10101111 00111010 10011000 01100001 
10011110 11010100 00110000 11110100 

11001110 11010011 00000001 01100101 
10000001 01000010 00010101 11010010 
10111100 11001001 00010111 01001011 
10001001 10101101 01000101 10100010 

00110011 10111110 00110000 01111111 
10110100 10101100 10000010 10011010 
10111010 01100100 01011011 00101010 
11111101 00000010 11100110 01001110 


01100000 10000001 00011101 11111011 
10011111 00111100 11001111 01001011 
00000010 10011011 11111100 11101100 
01111110 11110111 11000111 00010001 

00100110 10011100 11110111 01011101 
00100100 10001010 11011010 10001011 
00111000 11110000 01001011 00101000 
01111010 00100010 10100100 10110000 

01101110 00010000 00000110 10001110 
11010111 11100011 01100001 11011100 
00110100 00101001 01001010 01010110 
11111000 11010111 11001101 00110010 

11010111 11011000 00110110 00000100 
11001100 00010000 11001111 11101111 
11110111 00111010 11010110 00011111 
01110111 11100110 10110101 11001110 

10100011 11001001 11111110 10000110 
01011001 11010100 00001010 00100011 
10000110 10100011 01111110 11001100 
01011111 00100100 01111101 00110111 

00110101 01100111 10010000 10111011 
00010001 11111110 01101100 01000100 
10101111 00111010 10011000 01100001 
10011110 11010100 00110000 11110100 

11001110 11010011 00000001 01100101 
10000001 01000010 00010101 11010010 
10111100 11001001 00010111 01001011 
10001001 10101101 01000101 10100010 

00110011 10111110 00110000 01111111 
10110100 10101100 10000010 10011010 
10111010 01100100 01011011 00101010 
11111101 00000010 11100110 01001110 


01100000 10000001 00011101 11111011 
10011111 00111100 11001111 01001011 
00000010 10011011 11111100 11101100 
01111110 11110111 11000111 00010001 

00100110 10011100 11110111 01011101 
00100100 10001010 11011010 10001011 
00111000 11110000 01001011 00101000 
01111010 00100010 10100100 10110000 

01101110 00010000 00000110 10001110 
11010111 11100011 01100001 11011100 
00110100 00101001 01001010 01010110 
11111000 11010111 11001101 00110010 

11010111 11011000 00110110 00000100 
11001100 00010000 11001111 11101111 
11110111 00111010 11010110 00011111 
01110111 11100110 10110101 11001110 

10100011 11001001 11111110 10000110 
01011001 11010100 00001010 00100011 
10000110 10100011 01111110 11001100 
01011111 00100100 01111101 00110111 

00110101 01100111 10010000 10111011 
00010001 11111110 01101100 01000100 
10101111 00111010 10011000 01100001 
10011110 11010100 00110000 11110100 

11001110 11010011 00000001 01100101 
10000001 01000010 00010101 11010010 
10111100 11001001 00010111 01001011 
10001001 10101101 01000101 10100010 

00110011 10111110 00110000 01111111 
10110100 10101100 10000010 10011010 
10111010 01100100 01011011 00101010 
11111101 00000010 11100110 01001110 



01100000 10000001 00011101 11111011 
10011111 00111100 11001111 01001011 
00000010 10011011 11111100 11101100 
01111110 11110111 11000111 00010001 

00100110 10011100 11110111 01011101 
00100100 10001010 11011010 10001011 
00111000 11110000 01001011 00101000 
01111010 00100010 10100100 10110000 

01101110 00010000 00000110 10001110 
11010111 11100011 01100001 11011100 
00110100 00101001 01001010 01010110 
11111000 11010111 11001101 00110010 

11010111 11011000 00110110 00000100 
11001100 00010000 11001111 11101111 
11110111 00111010 11010110 00011111 
01110111 11100110 10110101 11001110 

10100011 11001001 11111110 10000110 
01011001 11010100 00001010 00100011 
10000110 10100011 01111110 11001100 
01011111 00100100 01111101 00110111 

00110101 01100111 10010000 10111011 
00010001 11111110 01101100 01000100 
10101111 00111010 10011000 01100001 
10011110 11010100 00110000 11110100 

11001110 11010011 00000001 01100101 
10000001 01000010 00010101 11010010 
10111100 11001001 00010111 01001011 
10001001 10101101 01000101 10100010 

00110011 10111110 00110000 01111111 
10110100 10101100 10000010 10011010 
10111010 01100100 01011011 00101010 
11111101 00000010 11100110 01001110 


01100000 10000001 00011101 11111011 
10011111 00111100 11001111 01001011 
00000010 10011011 11111100 11101100 
01111110 11110111 11000111 00010001 

00100110 10011100 11110111 01011101 
00100100 10001010 11011010 10001011 
00111000 11110000 01001011 00101000 
01111010 00100010 10100100 10110000 

01101110 00010000 00000110 10001110 
11010111 11100011 01100001 11011100 
00110100 00101001 01001010 01010110 
11111000 11010111 11001101 00110010 

11010111 11011000 00110110 00000100 
11001100 00010000 11001111 11101111 
11110111 00111010 11010110 00011111 
01110111 11100110 10110101 11001110 

10100011 11001001 11111110 10000110 
01011001 11010100 00001010 00100011 
10000110 10100011 01111110 11001100 
01011111 00100100 01111101 00110111 

00110101 01100111 10010000 10111011 
00010001 11111110 01101100 01000100 
10101111 00111010 10011000 01100001 
10011110 11010100 00110000 11110100 

11001110 11010011 00000001 01100101 
10000001 01000010 00010101 11010010 
10111100 11001001 00010111 01001011 
10001001 10101101 01000101 10100010 

00110011 10111110 00110000 01111111 
10110100 10101100 10000010 10011010 
10111010 01100100 01011011 00101010 
11111101 00000010 11100110 01001110 


01100000 10000001 00011101 11111011 
10011111 00111100 11001111 01001011 
00000010 10011011 11111100 11101100 
01111110 11110111 11000111 00010001 

00100110 10011100 11110111 01011101 
00100100 10001010 11011010 10001011 
00111000 11110000 01001011 00101000 
01111010 00100010 10100100 10110000 

01101110 00010000 00000110 10001110 
11010111 11100011 01100001 11011100 
00110100 00101001 01001010 01010110 
11111000 11010111 11001101 00110010 

11010111 11011000 00110110 00000100 
11001100 00010000 11001111 11101111 
11110111 00111010 11010110 00011111 
01110111 11100110 10110101 11001110 

10100011 11001001 11111110 10000110 
01011001 11010100 00001010 00100011 
10000110 10100011 01111110 11001100 
01011111 00100100 01111101 00110111 

00110101 01100111 10010000 10111011 
00010001 11111110 01101100 01000100 
10101111 00111010 10011000 01100001 
10011110 11010100 00110000 11110100 

11001110 11010011 00000001 01100101 
10000001 01000010 00010101 11010010 
10111100 11001001 00010111 01001011 
10001001 10101101 01000101 10100010 

00110011 10111110 00110000 01111111 
10110100 10101100 10000010 10011010 
10111010 01100100 01011011 00101010 
11111101 00000010 11100110 01001110 


01100000 10000001 00011101 11111011 
10011111 00111100 11001111 01001011 
00000010 10011011 11111100 11101100 
01111110 11110111 11000111 00010001 

00100110 10011100 11110111 01011101 
00100100 10001010 11011010 10001011 
00111000 11110000 01001011 00101000 
01111010 00100010 10100100 10110000 

01101110 00010000 00000110 10001110 
11010111 11100011 01100001 11011100 
00110100 00101001 01001010 01010110 
11111000 11010111 11001101 00110010 

11010111 11011000 00110110 00000100 
11001100 00010000 11001111 11101111 
11110111 00111010 11010110 00011111 
01110111 11100110 10110101 11001110 

10100011 11001001 11111110 10000110 
01011001 11010100 00001010 00100011 
10000110 10100011 01111110 11001100 
01011111 00100100 01111101 00110111 

00110101 01100111 10010000 10111011 
00010001 11111110 01101100 01000100 
10101111 00111010 10011000 01100001 
10011110 11010100 00110000 11110100 

11001110 11010011 00000001 01100101 
10000001 01000010 00010101 11010010 
10111100 11001001 00010111 01001011 
10001001 10101101 01000101 10100010 

00110011 10111110 00110000 01111111 
10110100 10101100 10000010 10011010 
10111010 01100100 01011011 00101010 
11111101 00000010 11100110 01001110 



01100000 10000001 00011101 11111011 
10011111 00111100 11001111 01001011 
00000010 10011011 11111100 11101100 
01111110 11110111 11000111 00010001 

00100110 10011100 11110111 01011101 
00100100 10001010 11011010 10001011 
00111000 11110000 01001011 00101000 
01111010 00100010 10100100 10110000 

01101110 00010000 00000110 10001110 
11010111 11100011 01100001 11011100 
00110100 00101001 01001010 01010110 
11111000 11010111 11001101 00110010 

11010111 11011000 00110110 00000100 
11001100 00010000 11001111 11101111 
11110111 00111010 11010110 00011111 
01110111 11100110 10110101 11001110 

10100011 11001001 11111110 10000110 
01011001 11010100 00001010 00100011 
10000110 10100011 01111110 11001100 
01011111 00100100 01111101 00110111 

00110101 01100111 10010000 10111011 
00010001 11111110 01101100 01000100 
10101111 00111010 10011000 01100001 
10011110 11010100 00110000 11110100 

11001110 11010011 00000001 01100101 
10000001 01000010 00010101 11010010 
10111100 11001001 00010111 01001011 
10001001 10101101 01000101 10100010 

00110011 10111110 00110000 01111111 
10110100 10101100 10000010 10011010 
10111010 01100100 01011011 00101010 
11111101 00000010 11100110 01001110 


01100000 10000001 00011101 11111011 
10011111 00111100 11001111 01001011 
00000010 10011011 11111100 11101100 
01111110 11110111 11000111 00010001 

00100110 10011100 11110111 01011101 
00100100 10001010 11011010 10001011 
00111000 11110000 01001011 00101000 
01111010 00100010 10100100 10110000 

01101110 00010000 00000110 10001110 
11010111 11100011 01100001 11011100 
00110100 00101001 01001010 01010110 
11111000 11010111 11001101 00110010 

11010111 11011000 00110110 00000100 
11001100 00010000 11001111 11101111 
11110111 00111010 11010110 00011111 
01110111 11100110 10110101 11001110 

10100011 11001001 11111110 10000110 
01011001 11010100 00001010 00100011 
10000110 10100011 01111110 11001100 
01011111 00100100 01111101 00110111 

00110101 01100111 10010000 10111011 
00010001 11111110 01101100 01000100 
10101111 00111010 10011000 01100001 
10011110 11010100 00110000 11110100 

11001110 11010011 00000001 01100101 
10000001 01000010 00010101 11010010 
10111100 11001001 00010111 01001011 
10001001 10101101 01000101 10100010 

00110011 10111110 00110000 01111111 
10110100 10101100 10000010 10011010 
10111010 01100100 01011011 00101010 
11111101 00000010 11100110 01001110 


01100000 10000001 00011101 11111011 
10011111 00111100 11001111 01001011 
00000010 10011011 11111100 11101100 
01111110 11110111 11000111 00010001 

00100110 10011100 11110111 01011101 
00100100 10001010 11011010 10001011 
00111000 11110000 01001011 00101000 
01111010 00100010 10100100 10110000 

01101110 00010000 00000110 10001110 
11010111 11100011 01100001 11011100 
00110100 00101001 01001010 01010110 
11111000 11010111 11001101 00110010 

11010111 11011000 00110110 00000100 
11001100 00010000 11001111 11101111 
11110111 00111010 11010110 00011111 
01110111 11100110 10110101 11001110 

10100011 11001001 11111110 10000110 
01011001 11010100 00001010 00100011 
10000110 10100011 01111110 11001100 
01011111 00100100 01111101 00110111 

00110101 01100111 10010000 10111011 
00010001 11111110 01101100 01000100 
10101111 00111010 10011000 01100001 
10011110 11010100 00110000 11110100 

11001110 11010011 00000001 01100101 
10000001 01000010 00010101 11010010 
10111100 11001001 00010111 01001011 
10001001 10101101 01000101 10100010 

00110011 10111110 00110000 01111111 
10110100 10101100 10000010 10011010 
10111010 01100100 01011011 00101010 
11111101 00000010 11100110 01001110 


01100000 10000001 00011101 11111011 
10011111 00111100 11001111 01001011 
00000010 10011011 11111100 11101100 
01111110 11110111 11000111 00010001 

00100110 10011100 11110111 01011101 
00100100 10001010 11011010 10001011 
00111000 11110000 01001011 00101000 
01111010 00100010 10100100 10110000 

01101110 00010000 00000110 10001110 
11010111 11100011 01100001 11011100 
00110100 00101001 01001010 01010110 
11111000 11010111 11001101 00110010 

11010111 11011000 00110110 00000100 
11001100 00010000 11001111 11101111 
11110111 00111010 11010110 00011111 
01110111 11100110 10110101 11001110 

10100011 11001001 11111110 10000110 
01011001 11010100 00001010 00100011 
10000110 10100011 01111110 11001100 
01011111 00100100 01111101 00110111 

00110101 01100111 10010000 10111011 
00010001 11111110 01101100 01000100 
10101111 00111010 10011000 01100001 
10011110 11010100 00110000 11110100 

11001110 11010011 00000001 01100101 
10000001 01000010 00010101 11010010 
10111100 11001001 00010111 01001011 
10001001 10101101 01000101 10100010 

00110011 10111110 00110000 01111111 
10110100 10101100 10000010 10011010 
10111010 01100100 01011011 00101010 
11111101 00000010 11100110 01001110 



01100000 10000001 00011101 11111011 
10011111 00111100 11001111 01001011 
00000010 10011011 11111100 11101100 
01111110 11110111 11000111 00010001 

00100110 10011100 11110111 01011101 
00100100 10001010 11011010 10001011 
00111000 11110000 01001011 00101000 
01111010 00100010 10100100 10110000 

01101110 00010000 00000110 10001110 
11010111 11100011 01100001 11011100 
00110100 00101001 01001010 01010110 
11111000 11010111 11001101 00110010 

11010111 11011000 00110110 00000100 
11001100 00010000 11001111 11101111 
11110111 00111010 11010110 00011111 
01110111 11100110 10110101 11001110 

10100011 11001001 11111110 10000110 
01011001 11010100 00001010 00100011 
10000110 10100011 01111110 11001100 
01011111 00100100 01111101 00110111 

00110101 01100111 10010000 10111011 
00010001 11111110 01101100 01000100 
10101111 00111010 10011000 01100001 
10011110 11010100 00110000 11110100 

11001110 11010011 00000001 01100101 
10000001 01000010 00010101 11010010 
10111100 11001001 00010111 01001011 
10001001 10101101 01000101 10100010 

00110011 10111110 00110000 01111111 
10110100 10101100 10000010 10011010 
10111010 01100100 01011011 00101010 
11111101 00000010 11100110 01001110 


01100000 10000001 00011101 11111011 
10011111 00111100 11001111 01001011 
00000010 10011011 11111100 11101100 
01111110 11110111 11000111 00010001 

00100110 10011100 11110111 01011101 
00100100 10001010 11011010 10001011 
00111000 11110000 01001011 00101000 
01111010 00100010 10100100 10110000 

01101110 00010000 00000110 10001110 
11010111 11100011 01100001 11011100 
00110100 00101001 01001010 01010110 
11111000 11010111 11001101 00110010 

11010111 11011000 00110110 00000100 
11001100 00010000 11001111 11101111 
11110111 00111010 11010110 00011111 
01110111 11100110 10110101 11001110 

10100011 11001001 11111110 10000110 
01011001 11010100 00001010 00100011 
10000110 10100011 01111110 11001100 
01011111 00100100 01111101 00110111 

00110101 01100111 10010000 10111011 
00010001 11111110 01101100 01000100 
10101111 00111010 10011000 01100001 
10011110 11010100 00110000 11110100 

11001110 11010011 00000001 01100101 
10000001 01000010 00010101 11010010 
10111100 11001001 00010111 01001011 
10001001 10101101 01000101 10100010 

00110011 10111110 00110000 01111111 
10110100 10101100 10000010 10011010 
10111010 01100100 01011011 00101010 
11111101 00000010 11100110 01001110 


01100000 10000001 00011101 11111011 
10011111 00111100 11001111 01001011 
00000010 10011011 11111100 11101100 
01111110 11110111 11000111 00010001 

00100110 10011100 11110111 01011101 
00100100 10001010 11011010 10001011 
00111000 11110000 01001011 00101000 
01111010 00100010 10100100 10110000 

01101110 00010000 00000110 10001110 
11010111 11100011 01100001 11011100 
00110100 00101001 01001010 01010110 
11111000 11010111 11001101 00110010 

11010111 11011000 00110110 00000100 
11001100 00010000 11001111 11101111 
11110111 00111010 11010110 00011111 
01110111 11100110 10110101 11001110 

10100011 11001001 11111110 10000110 
01011001 11010100 00001010 00100011 
10000110 10100011 01111110 11001100 
01011111 00100100 01111101 00110111 

00110101 01100111 10010000 10111011 
00010001 11111110 01101100 01000100 
10101111 00111010 10011000 01100001 
10011110 11010100 00110000 11110100 

11001110 11010011 00000001 01100101 
10000001 01000010 00010101 11010010 
10111100 11001001 00010111 01001011 
10001001 10101101 01000101 10100010 

00110011 10111110 00110000 01111111 
10110100 10101100 10000010 10011010 
10111010 01100100 01011011 00101010 
11111101 00000010 11100110 01001110 


01100000 10000001 00011101 11111011 
10011111 00111100 11001111 01001011 
00000010 10011011 11111100 11101100 
01111110 11110111 11000111 00010001 

00100110 10011100 11110111 01011101 
00100100 10001010 11011010 10001011 
00111000 11110000 01001011 00101000 
01111010 00100010 10100100 10110000 

01101110 00010000 00000110 10001110 
11010111 11100011 01100001 11011100 
00110100 00101001 01001010 01010110 
11111000 11010111 11001101 00110010 

11010111 11011000 00110110 00000100 
11001100 00010000 11001111 11101111 
11110111 00111010 11010110 00011111 
01110111 11100110 10110101 11001110 

10100011 11001001 11111110 10000110 
01011001 11010100 00001010 00100011 
10000110 10100011 01111110 11001100 
01011111 00100100 01111101 00110111 

00110101 01100111 10010000 10111011 
00010001 11111110 01101100 01000100 
10101111 00111010 10011000 01100001 
10011110 11010100 00110000 11110100 

11001110 11010011 00000001 01100101 
10000001 01000010 00010101 11010010 
10111100 11001001 00010111 01001011 
10001001 10101101 01000101 10100010 

00110011 10111110 00110000 01111111 
10110100 10101100 10000010 10011010 
10111010 01100100 01011011 00101010 
11111101 00000010 11100110 01001110 



01100000 10000001 00011101 11111011 
10011111 00111100 11001111 01001011 
00000010 10011011 11111100 11101100 
01111110 11110111 11000111 00010001 

00100110 10011100 11110111 01011101 
00100100 10001010 11011010 10001011 
00111000 11110000 01001011 00101000 
01111010 00100010 10100100 10110000 

01101110 00010000 00000110 10001110 
11010111 11100011 01100001 11011100 
00110100 00101001 01001010 01010110 
11111000 11010111 11001101 00110010 

11010111 11011000 00110110 00000100 
11001100 00010000 11001111 11101111 
11110111 00111010 11010110 00011111 
01110111 11100110 10110101 11001110 

10100011 11001001 11111110 10000110 
01011001 11010100 00001010 00100011 
10000110 10100011 01111110 11001100 
01011111 00100100 01111101 00110111 

00110101 01100111 10010000 10111011 
00010001 11111110 01101100 01000100 
10101111 00111010 10011000 01100001 
10011110 11010100 00110000 11110100 

11001110 11010011 00000001 01100101 
10000001 01000010 00010101 11010010 
10111100 11001001 00010111 01001011 
10001001 10101101 01000101 10100010 

00110011 10111110 00110000 01111111 
10110100 10101100 10000010 10011010 
10111010 01100100 01011011 00101010 
11111101 00000010 11100110 01001110 


01100000 10000001 00011101 11111011 
10011111 00111100 11001111 01001011 
00000010 10011011 11111100 11101100 
01111110 11110111 11000111 00010001 

00100110 10011100 11110111 01011101 
00100100 10001010 11011010 10001011 
00111000 11110000 01001011 00101000 
01111010 00100010 10100100 10110000 

01101110 00010000 00000110 10001110 
11010111 11100011 01100001 11011100 
00110100 00101001 01001010 01010110 
11111000 11010111 11001101 00110010 

11010111 11011000 00110110 00000100 
11001100 00010000 11001111 11101111 
11110111 00111010 11010110 00011111 
01110111 11100110 10110101 11001110 

10100011 11001001 11111110 10000110 
01011001 11010100 00001010 00100011 
10000110 10100011 01111110 11001100 
01011111 00100100 01111101 00110111 

00110101 01100111 10010000 10111011 
00010001 11111110 01101100 01000100 
10101111 00111010 10011000 01100001 
10011110 11010100 00110000 11110100 

11001110 11010011 00000001 01100101 
10000001 01000010 00010101 11010010 
10111100 11001001 00010111 01001011 
10001001 10101101 01000101 10100010 

00110011 10111110 00110000 01111111 
10110100 10101100 10000010 10011010 
10111010 01100100 01011011 00101010 
11111101 00000010 11100110 01001110 


01100000 10000001 00011101 11111011 
10011111 00111100 11001111 01001011 
00000010 10011011 11111100 11101100 
01111110 11110111 11000111 00010001 

00100110 10011100 11110111 01011101 
00100100 10001010 11011010 10001011 
00111000 11110000 01001011 00101000 
01111010 00100010 10100100 10110000 

01101110 00010000 00000110 10001110 
11010111 11100011 01100001 11011100 
00110100 00101001 01001010 01010110 
11111000 11010111 11001101 00110010 

11010111 11011000 00110110 00000100 
11001100 00010000 11001111 11101111 
11110111 00111010 11010110 00011111 
01110111 11100110 10110101 11001110 

10100011 11001001 11111110 10000110 
01011001 11010100 00001010 00100011 
10000110 10100011 01111110 11001100 
01011111 00100100 01111101 00110111 

00110101 01100111 10010000 10111011 
00010001 11111110 01101100 01000100 
10101111 00111010 10011000 01100001 
10011110 11010100 00110000 11110100 

11001110 11010011 00000001 01100101 
10000001 01000010 00010101 11010010 
10111100 11001001 00010111 01001011 
10001001 10101101 01000101 10100010 

00110011 10111110 00110000 01111111 
10110100 10101100 10000010 10011010 
10111010 01100100 01011011 00101010 
11111101 00000010 11100110 01001110 


01100000 10000001 00011101 11111011 
10011111 00111100 11001111 01001011 
00000010 10011011 11111100 11101100 
01111110 11110111 11000111 00010001 

00100110 10011100 11110111 01011101 
00100100 10001010 11011010 10001011 
00111000 11110000 01001011 00101000 
01111010 00100010 10100100 10110000 

01101110 00010000 00000110 10001110 
11010111 11100011 01100001 11011100 
00110100 00101001 01001010 01010110 
11111000 11010111 11001101 00110010 

11010111 11011000 00110110 00000100 
11001100 00010000 11001111 11101111 
11110111 00111010 11010110 00011111 
01110111 11100110 10110101 11001110 

10100011 11001001 11111110 10000110 
01011001 11010100 00001010 00100011 
10000110 10100011 01111110 11001100 
01011111 00100100 01111101 00110111 

00110101 01100111 10010000 10111011 
00010001 11111110 01101100 01000100 
10101111 00111010 10011000 01100001 
10011110 11010100 00110000 11110100 

11001110 11010011 00000001 01100101 
10000001 01000010 00010101 11010010 
10111100 11001001 00010111 01001011 
10001001 10101101 01000101 10100010 

00110011 10111110 00110000 01111111 
10110100 10101100 10000010 10011010 
10111010 01100100 01011011 00101010 
11111101 00000010 11100110 01001110 



01100000 10000001 00011101 11111011 
10011111 00111100 11001111 01001011 
00000010 10011011 11111100 11101100 
01111110 11110111 11000111 00010001 

00100110 10011100 11110111 01011101 
00100100 10001010 11011010 10001011 
00111000 11110000 01001011 00101000 
01111010 00100010 10100100 10110000 

01101110 00010000 00000110 10001110 
11010111 11100011 01100001 11011100 
00110100 00101001 01001010 01010110 
11111000 11010111 11001101 00110010 

11010111 11011000 00110110 00000100 
11001100 00010000 11001111 11101111 
11110111 00111010 11010110 00011111 
01110111 11100110 10110101 11001110 

10100011 11001001 11111110 10000110 
01011001 11010100 00001010 00100011 
10000110 10100011 01111110 11001100 
01011111 00100100 01111101 00110111 

00110101 01100111 10010000 10111011 
00010001 11111110 01101100 01000100 
10101111 00111010 10011000 01100001 
10011110 11010100 00110000 11110100 

11001110 11010011 00000001 01100101 
10000001 01000010 00010101 11010010 
10111100 11001001 00010111 01001011 
10001001 10101101 01000101 10100010 

00110011 10111110 00110000 01111111 
10110100 10101100 10000010 10011010 
10111010 01100100 01011011 00101010 
11111101 00000010 11100110 01001110 


01100000 10000001 00011101 11111011 
10011111 00111100 11001111 01001011 
00000010 10011011 11111100 11101100 
01111110 11110111 11000111 00010001 

00100110 10011100 11110111 01011101 
00100100 10001010 11011010 10001011 
00111000 11110000 01001011 00101000 
01111010 00100010 10100100 10110000 

01101110 00010000 00000110 10001110 
11010111 11100011 01100001 11011100 
00110100 00101001 01001010 01010110 
11111000 11010111 11001101 00110010 

11010111 11011000 00110110 00000100 
11001100 00010000 11001111 11101111 
11110111 00111010 11010110 00011111 
01110111 11100110 10110101 11001110 

10100011 11001001 11111110 10000110 
01011001 11010100 00001010 00100011 
10000110 10100011 01111110 11001100 
01011111 00100100 01111101 00110111 

00110101 01100111 10010000 10111011 
00010001 11111110 01101100 01000100 
10101111 00111010 10011000 01100001 
10011110 11010100 00110000 11110100 

11001110 11010011 00000001 01100101 
10000001 01000010 00010101 11010010 
10111100 11001001 00010111 01001011 
10001001 10101101 01000101 10100010 

00110011 10111110 00110000 01111111 
10110100 10101100 10000010 10011010 
10111010 01100100 01011011 00101010 
11111101 00000010 11100110 01001110 


01100000 10000001 00011101 11111011 
10011111 00111100 11001111 01001011 
00000010 10011011 11111100 11101100 
01111110 11110111 11000111 00010001 

00100110 10011100 11110111 01011101 
00100100 10001010 11011010 10001011 
00111000 11110000 01001011 00101000 
01111010 00100010 10100100 10110000 

01101110 00010000 00000110 10001110 
11010111 11100011 01100001 11011100 
00110100 00101001 01001010 01010110 
11111000 11010111 11001101 00110010 

11010111 11011000 00110110 00000100 
11001100 00010000 11001111 11101111 
11110111 00111010 11010110 00011111 
01110111 11100110 10110101 11001110 

10100011 11001001 11111110 10000110 
01011001 11010100 00001010 00100011 
10000110 10100011 01111110 11001100 
01011111 00100100 01111101 00110111 

00110101 01100111 10010000 10111011 
00010001 11111110 01101100 01000100 
10101111 00111010 10011000 01100001 
10011110 11010100 00110000 11110100 

11001110 11010011 00000001 01100101 
10000001 01000010 00010101 11010010 
10111100 11001001 00010111 01001011 
10001001 10101101 01000101 10100010 

00110011 10111110 00110000 01111111 
10110100 10101100 10000010 10011010 
10111010 01100100 01011011 00101010 
11111101 00000010 11100110 01001110 


01100000 10000001 00011101 11111011 
10011111 00111100 11001111 01001011 
00000010 10011011 11111100 11101100 
01111110 11110111 11000111 00010001 

00100110 10011100 11110111 01011101 
00100100 10001010 11011010 10001011 
00111000 11110000 01001011 00101000 
01111010 00100010 10100100 10110000 

01101110 00010000 00000110 10001110 
11010111 11100011 01100001 11011100 
00110100 00101001 01001010 01010110 
11111000 11010111 11001101 00110010 

11010111 11011000 00110110 00000100 
11001100 00010000 11001111 11101111 
11110111 00111010 11010110 00011111 
01110111 11100110 10110101 11001110 

10100011 11001001 11111110 10000110 
01011001 11010100 00001010 00100011 
10000110 10100011 01111110 11001100 
01011111 00100100 01111101 00110111 

00110101 01100111 10010000 10111011 
00010001 11111110 01101100 01000100 
10101111 00111010 10011000 01100001 
10011110 11010100 00110000 11110100 

11001110 11010011 00000001 01100101 
10000001 01000010 00010101 11010010 
10111100 11001001 00010111 01001011 
10001001 10101101 01000101 10100010 

00110011 10111110 00110000 01111111 
10110100 10101100 10000010 10011010 
10111010 01100100 01011011 00101010 
11111101 00000010 11100110 01001110 




11001000 00011101 00110110 01101010 
01010110 11101011 01110001 11011011 
00011101 01101010 01000100 01010001 
10101010 10101010 10101010 00010111 

11111010 00000010 10011010 01000000 
01010111 10010000 11100000 00001000 
01011010 10000011 10101101 00110101 
11000011 00101010 10001110 11100110 

10000100 11010110 00111100 11011111 
10101011 11101101 01110100 11110000 
10000111 10001000 10101000 11000110 
00111100 11000001 00110110 00010001 

11011101 10001010 10111110 11101100 
00111100 00000101 01101011 10101100 
01001001 01101000 01000100 01011011 
01011100 00101100 00110100 00011010 

00000110 10111011 10001110 00111010 
01000000 11011101 00011111 10100101 
10001111 11101110 11111000 01010001 
01100100 01101010 11001001 01000010 

11010010 00100000 01110111 01101011 
01001000 00110111 00111111 11111100 
10111011 10111111 00101110 11111111 
10101111 00110001 10001000 10111011 

01010011 01011110 01001011 10001011 
11001111 01010111 10010001 10010001 
01000011 01101010 01011100 01110100 
01011101 10010101 10111111 11001011 

10111010 00001100 10100011 00010111 
00010110 01001000 00101010 11111010 
10011100 11100101 11001011 11111101 
01010110 00111100 11101010 10011001 


11001000 00011101 00110110 01101010 
01010110 11101011 01110001 11011011 
00011101 01101010 01000100 01010001 
10101010 10101010 10101010 00010111 

11111010 00000010 10011010 01000000 
01010111 10010000 11100000 00001000 
01011010 10000011 10101101 00110101 
11000011 00101010 10001110 11100110 

10000100 11010110 00111100 11011111 
10101011 11101101 01110100 11110000 
10000111 10001000 10101000 11000110 
00111100 11000001 00110110 00010001 

11011101 10001010 10111110 11101100 
00111100 00000101 01101011 10101100 
01001001 01101000 01000100 01011011 
01011100 00101100 00110100 00011010 

00000110 10111011 10001110 00111010 
01000000 11011101 00011111 10100101 
10001111 11101110 11111000 01010001 
01100100 01101010 11001001 01000010 

11010010 00100000 01110111 01101011 
01001000 00110111 00111111 11111100 
10111011 10111111 00101110 11111111 
10101111 00110001 10001000 10111011 

01010011 01011110 01001011 10001011 
11001111 01010111 10010001 10010001 
01000011 01101010 01011100 01110100 
01011101 10010101 10111111 11001011 

10111010 00001100 10100011 00010111 
00010110 01001000 00101010 11111010 
10011100 11100101 11001011 11111101 
01010110 00111100 11101010 10011001 


11001000 00011101 00110110 01101010 
01010110 11101011 01110001 11011011 
00011101 01101010 01000100 01010001 
10101010 10101010 10101010 00010111 

11111010 00000010 10011010 01000000 
01010111 10010000 11100000 00001000 
01011010 10000011 10101101 00110101 
11000011 00101010 10001110 11100110 

10000100 11010110 00111100 11011111 
10101011 11101101 01110100 11110000 
10000111 10001000 10101000 11000110 
00111100 11000001 00110110 00010001 

11011101 10001010 10111110 11101100 
00111100 00000101 01101011 10101100 
01001001 01101000 01000100 01011011 
01011100 00101100 00110100 00011010 

00000110 10111011 10001110 00111010 
01000000 11011101 00011111 10100101 
10001111 11101110 11111000 01010001 
01100100 01101010 11001001 01000010 

11010010 00100000 01110111 01101011 
01001000 00110111 00111111 11111100 
10111011 10111111 00101110 11111111 
10101111 00110001 10001000 10111011 

01010011 01011110 01001011 10001011 
11001111 01010111 10010001 10010001 
01000011 01101010 01011100 01110100 
01011101 10010101 10111111 11001011 

10111010 00001100 10100011 00010111 
00010110 01001000 00101010 11111010 
10011100 11100101 11001011 11111101 
01010110 00111100 11101010 10011001 


11001000 00011101 00110110 01101010 
01010110 11101011 01110001 11011011 
00011101 01101010 01000100 01010001 
10101010 10101010 10101010 00010111 

11111010 00000010 10011010 01000000 
01010111 10010000 11100000 00001000 
01011010 10000011 10101101 00110101 
11000011 00101010 10001110 11100110 

10000100 11010110 00111100 11011111 
10101011 11101101 01110100 11110000 
10000111 10001000 10101000 11000110 
00111100 11000001 00110110 00010001 

11011101 10001010 10111110 11101100 
00111100 00000101 01101011 10101100 
01001001 01101000 01000100 01011011 
01011100 00101100 00110100 00011010 

00000110 10111011 10001110 00111010 
01000000 11011101 00011111 10100101 
10001111 11101110 11111000 01010001 
01100100 01101010 11001001 01000010 

11010010 00100000 01110111 01101011 
01001000 00110111 00111111 11111100 
10111011 10111111 00101110 11111111 
10101111 00110001 10001000 10111011 

01010011 01011110 01001011 10001011 
11001111 01010111 10010001 10010001 
01000011 01101010 01011100 01110100 
01011101 10010101 10111111 11001011 

10111010 00001100 10100011 00010111 
00010110 01001000 00101010 11111010 
10011100 11100101 11001011 11111101 
01010110 00111100 11101010 10011001 



11001000 00011101 00110110 01101010 
01010110 11101011 01110001 11011011 
00011101 01101010 01000100 01010001 
10101010 10101010 10101010 00010111 

11111010 00000010 10011010 01000000 
01010111 10010000 11100000 00001000 
01011010 10000011 10101101 00110101 
11000011 00101010 10001110 11100110 

10000100 11010110 00111100 11011111 
10101011 11101101 01110100 11110000 
10000111 10001000 10101000 11000110 
00111100 11000001 00110110 00010001 

11011101 10001010 10111110 11101100 
00111100 00000101 01101011 10101100 
01001001 01101000 01000100 01011011 
01011100 00101100 00110100 00011010 

00000110 10111011 10001110 00111010 
01000000 11011101 00011111 10100101 
10001111 11101110 11111000 01010001 
01100100 01101010 11001001 01000010 

11010010 00100000 01110111 01101011 
01001000 00110111 00111111 11111100 
10111011 10111111 00101110 11111111 
10101111 00110001 10001000 10111011 

01010011 01011110 01001011 10001011 
11001111 01010111 10010001 10010001 
01000011 01101010 01011100 01110100 
01011101 10010101 10111111 11001011 

10111010 00001100 10100011 00010111 
00010110 01001000 00101010 11111010 
10011100 11100101 11001011 11111101 
01010110 00111100 11101010 10011001 


11001000 00011101 00110110 01101010 
01010110 11101011 01110001 11011011 
00011101 01101010 01000100 01010001 
10101010 10101010 10101010 00010111 

11111010 00000010 10011010 01000000 
01010111 10010000 11100000 00001000 
01011010 10000011 10101101 00110101 
11000011 00101010 10001110 11100110 

10000100 11010110 00111100 11011111 
10101011 11101101 01110100 11110000 
10000111 10001000 10101000 11000110 
00111100 11000001 00110110 00010001 

11011101 10001010 10111110 11101100 
00111100 00000101 01101011 10101100 
01001001 01101000 01000100 01011011 
01011100 00101100 00110100 00011010 

00000110 10111011 10001110 00111010 
01000000 11011101 00011111 10100101 
10001111 11101110 11111000 01010001 
01100100 01101010 11001001 01000010 

11010010 00100000 01110111 01101011 
01001000 00110111 00111111 11111100 
10111011 10111111 00101110 11111111 
10101111 00110001 10001000 10111011 

01010011 01011110 01001011 10001011 
11001111 01010111 10010001 10010001 
01000011 01101010 01011100 01110100 
01011101 10010101 10111111 11001011 

10111010 00001100 10100011 00010111 
00010110 01001000 00101010 11111010 
10011100 11100101 11001011 11111101 
01010110 00111100 11101010 10011001 


11001000 00011101 00110110 01101010 
01010110 11101011 01110001 11011011 
00011101 01101010 01000100 01010001 
10101010 10101010 10101010 00010111 

11111010 00000010 10011010 01000000 
01010111 10010000 11100000 00001000 
01011010 10000011 10101101 00110101 
11000011 00101010 10001110 11100110 

10000100 11010110 00111100 11011111 
10101011 11101101 01110100 11110000 
10000111 10001000 10101000 11000110 
00111100 11000001 00110110 00010001 

11011101 10001010 10111110 11101100 
00111100 00000101 01101011 10101100 
01001001 01101000 01000100 01011011 
01011100 00101100 00110100 00011010 

00000110 10111011 10001110 00111010 
01000000 11011101 00011111 10100101 
10001111 11101110 11111000 01010001 
01100100 01101010 11001001 01000010 

11010010 00100000 01110111 01101011 
01001000 00110111 00111111 11111100 
10111011 10111111 00101110 11111111 
10101111 00110001 10001000 10111011 

01010011 01011110 01001011 10001011 
11001111 01010111 10010001 10010001 
01000011 01101010 01011100 01110100 
01011101 10010101 10111111 11001011 

10111010 00001100 10100011 00010111 
00010110 01001000 00101010 11111010 
10011100 11100101 11001011 11111101 
01010110 00111100 11101010 10011001 


11001000 00011101 00110110 01101010 
01010110 11101011 01110001 11011011 
00011101 01101010 01000100 01010001 
10101010 10101010 10101010 00010111 

11111010 00000010 10011010 01000000 
01010111 10010000 11100000 00001000 
01011010 10000011 10101101 00110101 
11000011 00101010 10001110 11100110 

10000100 11010110 00111100 11011111 
10101011 11101101 01110100 11110000 
10000111 10001000 10101000 11000110 
00111100 11000001 00110110 00010001 

11011101 10001010 10111110 11101100 
00111100 00000101 01101011 10101100 
01001001 01101000 01000100 01011011 
01011100 00101100 00110100 00011010 

00000110 10111011 10001110 00111010 
01000000 11011101 00011111 10100101 
10001111 11101110 11111000 01010001 
01100100 01101010 11001001 01000010 

11010010 00100000 01110111 01101011 
01001000 00110111 00111111 11111100 
10111011 10111111 00101110 11111111 
10101111 00110001 10001000 10111011 

01010011 01011110 01001011 10001011 
11001111 01010111 10010001 10010001 
01000011 01101010 01011100 01110100 
01011101 10010101 10111111 11001011 

10111010 00001100 10100011 00010111 
00010110 01001000 00101010 11111010 
10011100 11100101 11001011 11111101 
01010110 00111100 11101010 10011001 



11001000 00011101 00110110 01101010 
01010110 11101011 01110001 11011011 
00011101 01101010 01000100 01010001 
10101010 10101010 10101010 00010111 

11111010 00000010 10011010 01000000 
01010111 10010000 11100000 00001000 
01011010 10000011 10101101 00110101 
11000011 00101010 10001110 11100110 

10000100 11010110 00111100 11011111 
10101011 11101101 01110100 11110000 
10000111 10001000 10101000 11000110 
00111100 11000001 00110110 00010001 

11011101 10001010 10111110 11101100 
00111100 00000101 01101011 10101100 
01001001 01101000 01000100 01011011 
01011100 00101100 00110100 00011010 

00000110 10111011 10001110 00111010 
01000000 11011101 00011111 10100101 
10001111 11101110 11111000 01010001 
01100100 01101010 11001001 01000010 

11010010 00100000 01110111 01101011 
01001000 00110111 00111111 11111100 
10111011 10111111 00101110 11111111 
10101111 00110001 10001000 10111011 

01010011 01011110 01001011 10001011 
11001111 01010111 10010001 10010001 
01000011 01101010 01011100 01110100 
01011101 10010101 10111111 11001011 

10111010 00001100 10100011 00010111 
00010110 01001000 00101010 11111010 
10011100 11100101 11001011 11111101 
01010110 00111100 11101010 10011001 


11001000 00011101 00110110 01101010 
01010110 11101011 01110001 11011011 
00011101 01101010 01000100 01010001 
10101010 10101010 10101010 00010111 

11111010 00000010 10011010 01000000 
01010111 10010000 11100000 00001000 
01011010 10000011 10101101 00110101 
11000011 00101010 10001110 11100110 

10000100 11010110 00111100 11011111 
10101011 11101101 01110100 11110000 
10000111 10001000 10101000 11000110 
00111100 11000001 00110110 00010001 

11011101 10001010 10111110 11101100 
00111100 00000101 01101011 10101100 
01001001 01101000 01000100 01011011 
01011100 00101100 00110100 00011010 

00000110 10111011 10001110 00111010 
01000000 11011101 00011111 10100101 
10001111 11101110 11111000 01010001 
01100100 01101010 11001001 01000010 

11010010 00100000 01110111 01101011 
01001000 00110111 00111111 11111100 
10111011 10111111 00101110 11111111 
10101111 00110001 10001000 10111011 

01010011 01011110 01001011 10001011 
11001111 01010111 10010001 10010001 
01000011 01101010 01011100 01110100 
01011101 10010101 10111111 11001011 

10111010 00001100 10100011 00010111 
00010110 01001000 00101010 11111010 
10011100 11100101 11001011 11111101 
01010110 00111100 11101010 10011001 


11001000 00011101 00110110 01101010 
01010110 11101011 01110001 11011011 
00011101 01101010 01000100 01010001 
10101010 10101010 10101010 00010111 

11111010 00000010 10011010 01000000 
01010111 10010000 11100000 00001000 
01011010 10000011 10101101 00110101 
11000011 00101010 10001110 11100110 

10000100 11010110 00111100 11011111 
10101011 11101101 01110100 11110000 
10000111 10001000 10101000 11000110 
00111100 11000001 00110110 00010001 

11011101 10001010 10111110 11101100 
00111100 00000101 01101011 10101100 
01001001 01101000 01000100 01011011 
01011100 00101100 00110100 00011010 

00000110 10111011 10001110 00111010 
01000000 11011101 00011111 10100101 
10001111 11101110 11111000 01010001 
01100100 01101010 11001001 01000010 

11010010 00100000 01110111 01101011 
01001000 00110111 00111111 11111100 
10111011 10111111 00101110 11111111 
10101111 00110001 10001000 10111011 

01010011 01011110 01001011 10001011 
11001111 01010111 10010001 10010001 
01000011 01101010 01011100 01110100 
01011101 10010101 10111111 11001011 

10111010 00001100 10100011 00010111 
00010110 01001000 00101010 11111010 
10011100 11100101 11001011 11111101 
01010110 00111100 11101010 10011001 


11001000 00011101 00110110 01101010 
01010110 11101011 01110001 11011011 
00011101 01101010 01000100 01010001 
10101010 10101010 10101010 00010111 

11111010 00000010 10011010 01000000 
01010111 10010000 11100000 00001000 
01011010 10000011 10101101 00110101 
11000011 00101010 10001110 11100110 

10000100 11010110 00111100 11011111 
10101011 11101101 01110100 11110000 
10000111 10001000 10101000 11000110 
00111100 11000001 00110110 00010001 

11011101 10001010 10111110 11101100 
00111100 00000101 01101011 10101100 
01001001 01101000 01000100 01011011 
01011100 00101100 00110100 00011010 

00000110 10111011 10001110 00111010 
01000000 11011101 00011111 10100101 
10001111 11101110 11111000 01010001 
01100100 01101010 11001001 01000010 

11010010 00100000 01110111 01101011 
01001000 00110111 00111111 11111100 
10111011 10111111 00101110 11111111 
10101111 00110001 10001000 10111011 

01010011 01011110 01001011 10001011 
11001111 01010111 10010001 10010001 
01000011 01101010 01011100 01110100 
01011101 10010101 10111111 11001011 

10111010 00001100 10100011 00010111 
00010110 01001000 00101010 11111010 
10011100 11100101 11001011 11111101 
01010110 00111100 11101010 10011001 



11001000 00011101 00110110 01101010 
01010110 11101011 01110001 11011011 
00011101 01101010 01000100 01010001 
10101010 10101010 10101010 00010111 

11111010 00000010 10011010 01000000 
01010111 10010000 11100000 00001000 
01011010 10000011 10101101 00110101 
11000011 00101010 10001110 11100110 

10000100 11010110 00111100 11011111 
10101011 11101101 01110100 11110000 
10000111 10001000 10101000 11000110 
00111100 11000001 00110110 00010001 

11011101 10001010 10111110 11101100 
00111100 00000101 01101011 10101100 
01001001 01101000 01000100 01011011 
01011100 00101100 00110100 00011010 

00000110 10111011 10001110 00111010 
01000000 11011101 00011111 10100101 
10001111 11101110 11111000 01010001 
01100100 01101010 11001001 01000010 

11010010 00100000 01110111 01101011 
01001000 00110111 00111111 11111100 
10111011 10111111 00101110 11111111 
10101111 00110001 10001000 10111011 

01010011 01011110 01001011 10001011 
11001111 01010111 10010001 10010001 
01000011 01101010 01011100 01110100 
01011101 10010101 10111111 11001011 

10111010 00001100 10100011 00010111 
00010110 01001000 00101010 11111010 
10011100 11100101 11001011 11111101 
01010110 00111100 11101010 10011001 


11001000 00011101 00110110 01101010 
01010110 11101011 01110001 11011011 
00011101 01101010 01000100 01010001 
10101010 10101010 10101010 00010111 

11111010 00000010 10011010 01000000 
01010111 10010000 11100000 00001000 
01011010 10000011 10101101 00110101 
11000011 00101010 10001110 11100110 

10000100 11010110 00111100 11011111 
10101011 11101101 01110100 11110000 
10000111 10001000 10101000 11000110 
00111100 11000001 00110110 00010001 

11011101 10001010 10111110 11101100 
00111100 00000101 01101011 10101100 
01001001 01101000 01000100 01011011 
01011100 00101100 00110100 00011010 

00000110 10111011 10001110 00111010 
01000000 11011101 00011111 10100101 
10001111 11101110 11111000 01010001 
01100100 01101010 11001001 01000010 

11010010 00100000 01110111 01101011 
01001000 00110111 00111111 11111100 
10111011 10111111 00101110 11111111 
10101111 00110001 10001000 10111011 

01010011 01011110 01001011 10001011 
11001111 01010111 10010001 10010001 
01000011 01101010 01011100 01110100 
01011101 10010101 10111111 11001011 

10111010 00001100 10100011 00010111 
00010110 01001000 00101010 11111010 
10011100 11100101 11001011 11111101 
01010110 00111100 11101010 10011001 


11001000 00011101 00110110 01101010 
01010110 11101011 01110001 11011011 
00011101 01101010 01000100 01010001 
10101010 10101010 10101010 00010111 

11111010 00000010 10011010 01000000 
01010111 10010000 11100000 00001000 
01011010 10000011 10101101 00110101 
11000011 00101010 10001110 11100110 

10000100 11010110 00111100 11011111 
10101011 11101101 01110100 11110000 
10000111 10001000 10101000 11000110 
00111100 11000001 00110110 00010001 

11011101 10001010 10111110 11101100 
00111100 00000101 01101011 10101100 
01001001 01101000 01000100 01011011 
01011100 00101100 00110100 00011010 

00000110 10111011 10001110 00111010 
01000000 11011101 00011111 10100101 
10001111 11101110 11111000 01010001 
01100100 01101010 11001001 01000010 

11010010 00100000 01110111 01101011 
01001000 00110111 00111111 11111100 
10111011 10111111 00101110 11111111 
10101111 00110001 10001000 10111011 

01010011 01011110 01001011 10001011 
11001111 01010111 10010001 10010001 
01000011 01101010 01011100 01110100 
01011101 10010101 10111111 11001011 

10111010 00001100 10100011 00010111 
00010110 01001000 00101010 11111010 
10011100 11100101 11001011 11111101 
01010110 00111100 11101010 10011001 


11001000 00011101 00110110 01101010 
01010110 11101011 01110001 11011011 
00011101 01101010 01000100 01010001 
10101010 10101010 10101010 00010111 

11111010 00000010 10011010 01000000 
01010111 10010000 11100000 00001000 
01011010 10000011 10101101 00110101 
11000011 00101010 10001110 11100110 

10000100 11010110 00111100 11011111 
10101011 11101101 01110100 11110000 
10000111 10001000 10101000 11000110 
00111100 11000001 00110110 00010001 

11011101 10001010 10111110 11101100 
00111100 00000101 01101011 10101100 
01001001 01101000 01000100 01011011 
01011100 00101100 00110100 00011010 

00000110 10111011 10001110 00111010 
01000000 11011101 00011111 10100101 
10001111 11101110 11111000 01010001 
01100100 01101010 11001001 01000010 

11010010 00100000 01110111 01101011 
01001000 00110111 00111111 11111100 
10111011 10111111 00101110 11111111 
10101111 00110001 10001000 10111011 

01010011 01011110 01001011 10001011 
11001111 01010111 10010001 10010001 
01000011 01101010 01011100 01110100 
01011101 10010101 10111111 11001011 

10111010 00001100 10100011 00010111 
00010110 01001000 00101010 11111010 
10011100 11100101 11001011 11111101 
01010110 00111100 11101010 10011001 



11001000 00011101 00110110 01101010 
01010110 11101011 01110001 11011011 
00011101 01101010 01000100 01010001 
10101010 10101010 10101010 00010111 

11111010 00000010 10011010 01000000 
01010111 10010000 11100000 00001000 
01011010 10000011 10101101 00110101 
11000011 00101010 10001110 11100110 

10000100 11010110 00111100 11011111 
10101011 11101101 01110100 11110000 
10000111 10001000 10101000 11000110 
00111100 11000001 00110110 00010001 

11011101 10001010 10111110 11101100 
00111100 00000101 01101011 10101100 
01001001 01101000 01000100 01011011 
01011100 00101100 00110100 00011010 

00000110 10111011 10001110 00111010 
01000000 11011101 00011111 10100101 
10001111 11101110 11111000 01010001 
01100100 01101010 11001001 01000010 

11010010 00100000 01110111 01101011 
01001000 00110111 00111111 11111100 
10111011 10111111 00101110 11111111 
10101111 00110001 10001000 10111011 

01010011 01011110 01001011 10001011 
11001111 01010111 10010001 10010001 
01000011 01101010 01011100 01110100 
01011101 10010101 10111111 11001011 

10111010 00001100 10100011 00010111 
00010110 01001000 00101010 11111010 
10011100 11100101 11001011 11111101 
01010110 00111100 11101010 10011001 


11001000 00011101 00110110 01101010 
01010110 11101011 01110001 11011011 
00011101 01101010 01000100 01010001 
10101010 10101010 10101010 00010111 

11111010 00000010 10011010 01000000 
01010111 10010000 11100000 00001000 
01011010 10000011 10101101 00110101 
11000011 00101010 10001110 11100110 

10000100 11010110 00111100 11011111 
10101011 11101101 01110100 11110000 
10000111 10001000 10101000 11000110 
00111100 11000001 00110110 00010001 

11011101 10001010 10111110 11101100 
00111100 00000101 01101011 10101100 
01001001 01101000 01000100 01011011 
01011100 00101100 00110100 00011010 

00000110 10111011 10001110 00111010 
01000000 11011101 00011111 10100101 
10001111 11101110 11111000 01010001 
01100100 01101010 11001001 01000010 

11010010 00100000 01110111 01101011 
01001000 00110111 00111111 11111100 
10111011 10111111 00101110 11111111 
10101111 00110001 10001000 10111011 

01010011 01011110 01001011 10001011 
11001111 01010111 10010001 10010001 
01000011 01101010 01011100 01110100 
01011101 10010101 10111111 11001011 

10111010 00001100 10100011 00010111 
00010110 01001000 00101010 11111010 
10011100 11100101 11001011 11111101 
01010110 00111100 11101010 10011001 


11001000 00011101 00110110 01101010 
01010110 11101011 01110001 11011011 
00011101 01101010 01000100 01010001 
10101010 10101010 10101010 00010111 

11111010 00000010 10011010 01000000 
01010111 10010000 11100000 00001000 
01011010 10000011 10101101 00110101 
11000011 00101010 10001110 11100110 

10000100 11010110 00111100 11011111 
10101011 11101101 01110100 11110000 
10000111 10001000 10101000 11000110 
00111100 11000001 00110110 00010001 

11011101 10001010 10111110 11101100 
00111100 00000101 01101011 10101100 
01001001 01101000 01000100 01011011 
01011100 00101100 00110100 00011010 

00000110 10111011 10001110 00111010 
01000000 11011101 00011111 10100101 
10001111 11101110 11111000 01010001 
01100100 01101010 11001001 01000010 

11010010 00100000 01110111 01101011 
01001000 00110111 00111111 11111100 
10111011 10111111 00101110 11111111 
10101111 00110001 10001000 10111011 

01010011 01011110 01001011 10001011 
11001111 01010111 10010001 10010001 
01000011 01101010 01011100 01110100 
01011101 10010101 10111111 11001011 

10111010 00001100 10100011 00010111 
00010110 01001000 00101010 11111010 
10011100 11100101 11001011 11111101 
01010110 00111100 11101010 10011001 


11001000 00011101 00110110 01101010 
01010110 11101011 01110001 11011011 
00011101 01101010 01000100 01010001 
10101010 10101010 10101010 00010111 

11111010 00000010 10011010 01000000 
01010111 10010000 11100000 00001000 
01011010 10000011 10101101 00110101 
11000011 00101010 10001110 11100110 

10000100 11010110 00111100 11011111 
10101011 11101101 01110100 11110000 
10000111 10001000 10101000 11000110 
00111100 11000001 00110110 00010001 

11011101 10001010 10111110 11101100 
00111100 00000101 01101011 10101100 
01001001 01101000 01000100 01011011 
01011100 00101100 00110100 00011010 

00000110 10111011 10001110 00111010 
01000000 11011101 00011111 10100101 
10001111 11101110 11111000 01010001 
01100100 01101010 11001001 01000010 

11010010 00100000 01110111 01101011 
01001000 00110111 00111111 11111100 
10111011 10111111 00101110 11111111 
10101111 00110001 10001000 10111011 

01010011 01011110 01001011 10001011 
11001111 01010111 10010001 10010001 
01000011 01101010 01011100 01110100 
01011101 10010101 10111111 11001011 

10111010 00001100 10100011 00010111 
00010110 01001000 00101010 11111010 
10011100 11100101 11001011 11111101 
01010110 00111100 11101010 10011001 



11001000 00011101 00110110 01101010 
01010110 11101011 01110001 11011011 
00011101 01101010 01000100 01010001 
10101010 10101010 10101010 00010111 

11111010 00000010 10011010 01000000 
01010111 10010000 11100000 00001000 
01011010 10000011 10101101 00110101 
11000011 00101010 10001110 11100110 

10000100 11010110 00111100 11011111 
10101011 11101101 01110100 11110000 
10000111 10001000 10101000 11000110 
00111100 11000001 00110110 00010001 

11011101 10001010 10111110 11101100 
00111100 00000101 01101011 10101100 
01001001 01101000 01000100 01011011 
01011100 00101100 00110100 00011010 

00000110 10111011 10001110 00111010 
01000000 11011101 00011111 10100101 
10001111 11101110 11111000 01010001 
01100100 01101010 11001001 01000010 

11010010 00100000 01110111 01101011 
01001000 00110111 00111111 11111100 
10111011 10111111 00101110 11111111 
10101111 00110001 10001000 10111011 

01010011 01011110 01001011 10001011 
11001111 01010111 10010001 10010001 
01000011 01101010 01011100 01110100 
01011101 10010101 10111111 11001011 

10111010 00001100 10100011 00010111 
00010110 01001000 00101010 11111010 
10011100 11100101 11001011 11111101 
01010110 00111100 11101010 10011001 


11001000 00011101 00110110 01101010 
01010110 11101011 01110001 11011011 
00011101 01101010 01000100 01010001 
10101010 10101010 10101010 00010111 

11111010 00000010 10011010 01000000 
01010111 10010000 11100000 00001000 
01011010 10000011 10101101 00110101 
11000011 00101010 10001110 11100110 

10000100 11010110 00111100 11011111 
10101011 11101101 01110100 11110000 
10000111 10001000 10101000 11000110 
00111100 11000001 00110110 00010001 

11011101 10001010 10111110 11101100 
00111100 00000101 01101011 10101100 
01001001 01101000 01000100 01011011 
01011100 00101100 00110100 00011010 

00000110 10111011 10001110 00111010 
01000000 11011101 00011111 10100101 
10001111 11101110 11111000 01010001 
01100100 01101010 11001001 01000010 

11010010 00100000 01110111 01101011 
01001000 00110111 00111111 11111100 
10111011 10111111 00101110 11111111 
10101111 00110001 10001000 10111011 

01010011 01011110 01001011 10001011 
11001111 01010111 10010001 10010001 
01000011 01101010 01011100 01110100 
01011101 10010101 10111111 11001011 

10111010 00001100 10100011 00010111 
00010110 01001000 00101010 11111010 
10011100 11100101 11001011 11111101 
01010110 00111100 11101010 10011001 


11001000 00011101 00110110 01101010 
01010110 11101011 01110001 11011011 
00011101 01101010 01000100 01010001 
10101010 10101010 10101010 00010111 

11111010 00000010 10011010 01000000 
01010111 10010000 11100000 00001000 
01011010 10000011 10101101 00110101 
11000011 00101010 10001110 11100110 

10000100 11010110 00111100 11011111 
10101011 11101101 01110100 11110000 
10000111 10001000 10101000 11000110 
00111100 11000001 00110110 00010001 

11011101 10001010 10111110 11101100 
00111100 00000101 01101011 10101100 
01001001 01101000 01000100 01011011 
01011100 00101100 00110100 00011010 

00000110 10111011 10001110 00111010 
01000000 11011101 00011111 10100101 
10001111 11101110 11111000 01010001 
01100100 01101010 11001001 01000010 

11010010 00100000 01110111 01101011 
01001000 00110111 00111111 11111100 
10111011 10111111 00101110 11111111 
10101111 00110001 10001000 10111011 

01010011 01011110 01001011 10001011 
11001111 01010111 10010001 10010001 
01000011 01101010 01011100 01110100 
01011101 10010101 10111111 11001011 

10111010 00001100 10100011 00010111 
00010110 01001000 00101010 11111010 
10011100 11100101 11001011 11111101 
01010110 00111100 11101010 10011001 


11001000 00011101 00110110 01101010 
01010110 11101011 01110001 11011011 
00011101 01101010 01000100 01010001 
10101010 10101010 10101010 00010111 

11111010 00000010 10011010 01000000 
01010111 10010000 11100000 00001000 
01011010 10000011 10101101 00110101 
11000011 00101010 10001110 11100110 

10000100 11010110 00111100 11011111 
10101011 11101101 01110100 11110000 
10000111 10001000 10101000 11000110 
00111100 11000001 00110110 00010001 

11011101 10001010 10111110 11101100 
00111100 00000101 01101011 10101100 
01001001 01101000 01000100 01011011 
01011100 00101100 00110100 00011010 

00000110 10111011 10001110 00111010 
01000000 11011101 00011111 10100101 
10001111 11101110 11111000 01010001 
01100100 01101010 11001001 01000010 

11010010 00100000 01110111 01101011 
01001000 00110111 00111111 11111100 
10111011 10111111 00101110 11111111 
10101111 00110001 10001000 10111011 

01010011 01011110 01001011 10001011 
11001111 01010111 10010001 10010001 
01000011 01101010 01011100 01110100 
01011101 10010101 10111111 11001011 

10111010 00001100 10100011 00010111 
00010110 01001000 00101010 11111010 
10011100 11100101 11001011 11111101 
01010110 00111100 11101010 10011001 



11001000 00011101 00110110 01101010 
01010110 11101011 01110001 11011011 
00011101 01101010 01000100 01010001 
10101010 10101010 10101010 00010111 

11111010 00000010 10011010 01000000 
01010111 10010000 11100000 00001000 
01011010 10000011 10101101 00110101 
11000011 00101010 10001110 11100110 

10000100 11010110 00111100 11011111 
10101011 11101101 01110100 11110000 
10000111 10001000 10101000 11000110 
00111100 11000001 00110110 00010001 

11011101 10001010 10111110 11101100 
00111100 00000101 01101011 10101100 
01001001 01101000 01000100 01011011 
01011100 00101100 00110100 00011010 

00000110 10111011 10001110 00111010 
01000000 11011101 00011111 10100101 
10001111 11101110 11111000 01010001 
01100100 01101010 11001001 01000010 

11010010 00100000 01110111 01101011 
01001000 00110111 00111111 11111100 
10111011 10111111 00101110 11111111 
10101111 00110001 10001000 10111011 

01010011 01011110 01001011 10001011 
11001111 01010111 10010001 10010001 
01000011 01101010 01011100 01110100 
01011101 10010101 10111111 11001011 

10111010 00001100 10100011 00010111 
00010110 01001000 00101010 11111010 
10011100 11100101 11001011 11111101 
01010110 00111100 11101010 10011001 


11001000 00011101 00110110 01101010 
01010110 11101011 01110001 11011011 
00011101 01101010 01000100 01010001 
10101010 10101010 10101010 00010111 

11111010 00000010 10011010 01000000 
01010111 10010000 11100000 00001000 
01011010 10000011 10101101 00110101 
11000011 00101010 10001110 11100110 

10000100 11010110 00111100 11011111 
10101011 11101101 01110100 11110000 
10000111 10001000 10101000 11000110 
00111100 11000001 00110110 00010001 

11011101 10001010 10111110 11101100 
00111100 00000101 01101011 10101100 
01001001 01101000 01000100 01011011 
01011100 00101100 00110100 00011010 

00000110 10111011 10001110 00111010 
01000000 11011101 00011111 10100101 
10001111 11101110 11111000 01010001 
01100100 01101010 11001001 01000010 

11010010 00100000 01110111 01101011 
01001000 00110111 00111111 11111100 
10111011 10111111 00101110 11111111 
10101111 00110001 10001000 10111011 

01010011 01011110 01001011 10001011 
11001111 01010111 10010001 10010001 
01000011 01101010 01011100 01110100 
01011101 10010101 10111111 11001011 

10111010 00001100 10100011 00010111 
00010110 01001000 00101010 11111010 
10011100 11100101 11001011 11111101 
01010110 00111100 11101010 10011001 


11001000 00011101 00110110 01101010 
01010110 11101011 01110001 11011011 
00011101 01101010 01000100 01010001 
10101010 10101010 10101010 00010111 

11111010 00000010 10011010 01000000 
01010111 10010000 11100000 00001000 
01011010 10000011 10101101 00110101 
11000011 00101010 10001110 11100110 

10000100 11010110 00111100 11011111 
10101011 11101101 01110100 11110000 
10000111 10001000 10101000 11000110 
00111100 11000001 00110110 00010001 

11011101 10001010 10111110 11101100 
00111100 00000101 01101011 10101100 
01001001 01101000 01000100 01011011 
01011100 00101100 00110100 00011010 

00000110 10111011 10001110 00111010 
01000000 11011101 00011111 10100101 
10001111 11101110 11111000 01010001 
01100100 01101010 11001001 01000010 

11010010 00100000 01110111 01101011 
01001000 00110111 00111111 11111100 
10111011 10111111 00101110 11111111 
10101111 00110001 10001000 10111011 

01010011 01011110 01001011 10001011 
11001111 01010111 10010001 10010001 
01000011 01101010 01011100 01110100 
01011101 10010101 10111111 11001011 

10111010 00001100 10100011 00010111 
00010110 01001000 00101010 11111010 
10011100 11100101 11001011 11111101 
01010110 00111100 11101010 10011001 


11001000 00011101 00110110 01101010 
01010110 11101011 01110001 11011011 
00011101 01101010 01000100 01010001 
10101010 10101010 10101010 00010111 

11111010 00000010 10011010 01000000 
01010111 10010000 11100000 00001000 
01011010 10000011 10101101 00110101 
11000011 00101010 10001110 11100110 

10000100 11010110 00111100 11011111 
10101011 11101101 01110100 11110000 
10000111 10001000 10101000 11000110 
00111100 11000001 00110110 00010001 

11011101 10001010 10111110 11101100 
00111100 00000101 01101011 10101100 
01001001 01101000 01000100 01011011 
01011100 00101100 00110100 00011010 

00000110 10111011 10001110 00111010 
01000000 11011101 00011111 10100101 
10001111 11101110 11111000 01010001 
01100100 01101010 11001001 01000010 

11010010 00100000 01110111 01101011 
01001000 00110111 00111111 11111100 
10111011 10111111 00101110 11111111 
10101111 00110001 10001000 10111011 

01010011 01011110 01001011 10001011 
11001111 01010111 10010001 10010001 
01000011 01101010 01011100 01110100 
01011101 10010101 10111111 11001011 

10111010 00001100 10100011 00010111 
00010110 01001000 00101010 11111010 
10011100 11100101 11001011 11111101 
01010110 00111100 11101010 10011001 



11001000 00011101 00110110 01101010 
01010110 11101011 01110001 11011011 
00011101 01101010 01000100 01010001 
10101010 10101010 10101010 00010111 

11111010 00000010 10011010 01000000 
01010111 10010000 11100000 00001000 
01011010 10000011 10101101 00110101 
11000011 00101010 10001110 11100110 

10000100 11010110 00111100 11011111 
10101011 11101101 01110100 11110000 
10000111 10001000 10101000 11000110 
00111100 11000001 00110110 00010001 

11011101 10001010 10111110 11101100 
00111100 00000101 01101011 10101100 
01001001 01101000 01000100 01011011 
01011100 00101100 00110100 00011010 

00000110 10111011 10001110 00111010 
01000000 11011101 00011111 10100101 
10001111 11101110 11111000 01010001 
01100100 01101010 11001001 01000010 

11010010 00100000 01110111 01101011 
01001000 00110111 00111111 11111100 
10111011 10111111 00101110 11111111 
10101111 00110001 10001000 10111011 

01010011 01011110 01001011 10001011 
11001111 01010111 10010001 10010001 
01000011 01101010 01011100 01110100 
01011101 10010101 10111111 11001011 

10111010 00001100 10100011 00010111 
00010110 01001000 00101010 11111010 
10011100 11100101 11001011 11111101 
01010110 00111100 11101010 10011001 


11001000 00011101 00110110 01101010 
01010110 11101011 01110001 11011011 
00011101 01101010 01000100 01010001 
10101010 10101010 10101010 00010111 

11111010 00000010 10011010 01000000 
01010111 10010000 11100000 00001000 
01011010 10000011 10101101 00110101 
11000011 00101010 10001110 11100110 

10000100 11010110 00111100 11011111 
10101011 11101101 01110100 11110000 
10000111 10001000 10101000 11000110 
00111100 11000001 00110110 00010001 

11011101 10001010 10111110 11101100 
00111100 00000101 01101011 10101100 
01001001 01101000 01000100 01011011 
01011100 00101100 00110100 00011010 

00000110 10111011 10001110 00111010 
01000000 11011101 00011111 10100101 
10001111 11101110 11111000 01010001 
01100100 01101010 11001001 01000010 

11010010 00100000 01110111 01101011 
01001000 00110111 00111111 11111100 
10111011 10111111 00101110 11111111 
10101111 00110001 10001000 10111011 

01010011 01011110 01001011 10001011 
11001111 01010111 10010001 10010001 
01000011 01101010 01011100 01110100 
01011101 10010101 10111111 11001011 

10111010 00001100 10100011 00010111 
00010110 01001000 00101010 11111010 
10011100 11100101 11001011 11111101 
01010110 00111100 11101010 10011001 


11001000 00011101 00110110 01101010 
01010110 11101011 01110001 11011011 
00011101 01101010 01000100 01010001 
10101010 10101010 10101010 00010111 

11111010 00000010 10011010 01000000 
01010111 10010000 11100000 00001000 
01011010 10000011 10101101 00110101 
11000011 00101010 10001110 11100110 

10000100 11010110 00111100 11011111 
10101011 11101101 01110100 11110000 
10000111 10001000 10101000 11000110 
00111100 11000001 00110110 00010001 

11011101 10001010 10111110 11101100 
00111100 00000101 01101011 10101100 
01001001 01101000 01000100 01011011 
01011100 00101100 00110100 00011010 

00000110 10111011 10001110 00111010 
01000000 11011101 00011111 10100101 
10001111 11101110 11111000 01010001 
01100100 01101010 11001001 01000010 

11010010 00100000 01110111 01101011 
01001000 00110111 00111111 11111100 
10111011 10111111 00101110 11111111 
10101111 00110001 10001000 10111011 

01010011 01011110 01001011 10001011 
11001111 01010111 10010001 10010001 
01000011 01101010 01011100 01110100 
01011101 10010101 10111111 11001011 

10111010 00001100 10100011 00010111 
00010110 01001000 00101010 11111010 
10011100 11100101 11001011 11111101 
01010110 00111100 11101010 10011001 


11001000 00011101 00110110 01101010 
01010110 11101011 01110001 11011011 
00011101 01101010 01000100 01010001 
10101010 10101010 10101010 00010111 

11111010 00000010 10011010 01000000 
01010111 10010000 11100000 00001000 
01011010 10000011 10101101 00110101 
11000011 00101010 10001110 11100110 

10000100 11010110 00111100 11011111 
10101011 11101101 01110100 11110000 
10000111 10001000 10101000 11000110 
00111100 11000001 00110110 00010001 

11011101 10001010 10111110 11101100 
00111100 00000101 01101011 10101100 
01001001 01101000 01000100 01011011 
01011100 00101100 00110100 00011010 

00000110 10111011 10001110 00111010 
01000000 11011101 00011111 10100101 
10001111 11101110 11111000 01010001 
01100100 01101010 11001001 01000010 

11010010 00100000 01110111 01101011 
01001000 00110111 00111111 11111100 
10111011 10111111 00101110 11111111 
10101111 00110001 10001000 10111011 

01010011 01011110 01001011 10001011 
