0
0
0
0
0
0
0
0
0
0
0
0
0
0
0
0
0
0
0
0
0
0
0
0
0
0
0
0
0
0
0
0
0
0
0
0
0
0
0
0
0
0
0
0
0
0
0
0
0
0
0
0
0
0
0
0
0
0
0
0
0
0
0
0
0
0
0
0
0
0
0
0
0
0
11111110
0
0
0
0
0
0
0
0
0
0
0
0
0
0
0
0
0
0
0
0
0
1
10
100
10
1
0
11111111
0
11111111
0
0
0
0
11111111
0
0
0
0
0
0
0
11111111
11111111
11111110
11111101
11111110
0
11111110
11111111
10
0
11111111
0
10
11111110
0
11
0
0
11111111
11111100
11111101
0
0
0
0
0
0
0
11111111
11111110
11111101
11111011
11111011
11111011
11111011
11111111
1
11111111
10
11111011
11111010
11111110
0
0
0
0
0
11111110
11111101
0
0
0
0
0
11111111
11111111
11111101
11111101
11111010
11111001
11111100
11111110
0
100
0
11
10
0
11111101
1
10
10
0
0
0
11111111
11111110
0
0
0
0
0
0
11111111
11111101
11111100
11111000
11111000
11111110
0
0
100
1
1
1
0
11111100
11111110
10
1
11111111
10
11
11111111
11111110
0
0
0
0
0
0
11111111
11111101
11111101
11111111
0
11111110
11111111
0
11
11
1
11111101
11110110
1
11111100
0
11111001
11111110
10
1
11111100
11111101
11111110
0
0
0
0
0
11111101
11111110
11111101
11111110
0
11111110
11111110
0
0
10
10
11
11
11111001
11111110
11111110
11111100
11111111
11111111
11111101
11111110
11111100
11111111
1
0
0
0
11111111
11111111
11111101
11111101
11111111
0
0
11111100
11111101
0
101
110
100
1
11111110
11111010
11111111
11111110
11111110
11111010
11111011
11111100
11111101
11111111
0
0
0
0
0
11111111
11111110
11111111
0
0
0
0
0
1
0
10
11
1000
0
11111101
11111011
11111110
11111111
11111010
11111011
11111001
11111101
11111110
0
0
0
0
0
0
11111110
0
0
1
1
11111101
100
11111111
0
10
110
1010
11
11111111
11111101
11111010
11111101
11111111
11111101
11111110
0
0
0
0
0
0
0
0
11111111
0
0
11111110
11111110
0
0
10
101
11
10
110
111
11
11111011
11111110
0
0
1
10
1
0
0
0
0
0
0
0
11111111
11111100
11111001
0
10
1
0
100
0
100
0
111
0
11111100
11111010
11111001
0
11
0
0
1
1
0
0
0
0
0
0
11111110
11111010
11111010
11
101
0
0
110
1
10
100
1000
0
11111001
11111010
11111000
11111101
0
0
11111111
1
0
0
0
0
0
0
0
11111111
11111100
11111101
10
10
0
11111111
0
11
100
1
0
11110111
11110101
11110111
11110111
11111010
11111101
11111101
11111111
1
0
0
0
0
0
0
0
11111111
11111101
11111101
1
0
0
11111111
1
100
11
11111011
11110100
11110000
11110000
11110110
11111000
11111100
11111101
11111100
0
0
0
0
0
0
0
0
11111111
11111101
11111100
11111101
11111111
110
0
0
1
11111111
11111011
11110101
11110001
11110100
11111001
11111011
11111110
0
0
11111111
0
0
0
0
0
0
0
0
11111111
11111011
11111101
11111111
11111011
110
100
0
11111110
0
11111110
11111011
11111101
11111011
0
1
1
10
0
0
1
1
0
0
0
0
0
0
0
11111011
11111111
11111110
11111100
11111111
10
110
101
11111001
0
100
100
100
1000
11
100
11
10
10
101
1
0
0
0
0
0
0
0
1
11111111
0
0
10
101
10
11
11111101
0
11111111
0
11
110
0
101
111
11
100
101
11
0
0
0
0
0
0
11111111
11
11
1
101
11111101
11111110
0
11111110
11111110
100
1
11
100
11
0
110
111
1
1
1
1
0
0
0
0
0
11111111
11111111
1
10
0
11111101
11111111
11111111
0
111
10
0
0
11111111
10
100
1
10
10
0
0
0
0
0
0
0
0
0
0
0
1
0
0
11111110
11111110
0
11111110
11111100
11111101
11111110
1
11111100
11111110
0
11111110
0
10
0
0
0
0
0
0
0
0
0
0
1
0
11111111
11111110
11111111
0
11111110
0
11111011
11111110
11111100
11110110
11110111
11111101
11111111
11111100
0
0
0
0
0
0
0
0
0
0
0
0
0
0
1
0
0
1
0
0
0
11111111
0
11111111
11111110
11111111
11111111
11111110
0
0
0
0
0
0
0
0
0
0
0
0
0
0
0
0
0
0
0
0
0
0
0
0
0
0
0
0
0
0
0
0
0
0
0
0
