0
0
0
0
0
0
0
0
0
0
0
0
0
0
0
0
0
0
0
0
0
0
0
0
0
0
0
0
0
0
0
0
0
0
0
0
0
0
0
0
0
0
0
0
0
0
0
0
0
0
0
0
0
0
0
0
0
0
0
0
0
0
0
0
0
0
0
1
1
1
1
0
0
1
10
1
1
1
0
0
0
0
0
0
0
0
0
0
0
0
0
0
0
0
1
10
100
100
11
0
11
1
100
101
11
10
1
0
0
0
0
0
0
0
0
0
0
0
0
0
1
1
10
100
101
11
0
100
101
0
10
101
11
0
0
11111111
0
1
1
0
0
0
0
0
0
11111111
11111101
11111111
11111101
11111101
0
101
101
101
101
1000
101
101
1
1000
101
101
10
11111110
0
1
1
0
0
0
0
0
0
11111101
11111010
11111011
11111001
11111110
0
0
11111111
11
11111111
11111101
11111111
11111101
0
10
100
11111111
10
100
11
1
0
0
0
0
11111111
11111110
0
0
11111100
0
0
11111011
11111110
10
11111111
11111110
1
100
0
11111111
10
1
11111110
11111111
0
0
1
1
11111111
0
0
0
11111111
0
0
1
11111111
0
11111101
11111101
1
11111110
11
110
0
0
101
11
11111111
11
11111110
10
11
1
0
0
0
0
0
0
0
11111110
0
11111111
10
11
1
10
11111000
11111010
11111100
0
0
1
110
11111110
11111101
0
1
0
0
111
101
101
0
11111110
0
0
0
11111111
0
11111111
1
0
10
11111011
0
11111110
11111010
11111000
11111111
1
10
11
100
11111010
100
0
10
110
110
10
0
0
0
0
0
0
100
100
0
11111101
1
11111110
11111110
11111111
11111100
0
1
11111101
11111001
11111000
11111101
11111111
11111110
11111111
0
11111111
101
10
1
0
0
0
0
10
10
1
11111101
11111101
11111110
0
11111011
11111110
1
11
101
11111011
11111000
11111110
11110101
11111100
11111111
0
1
1
100
1
0
0
0
0
0
10
0
11111111
11111110
11111100
11111111
11111111
11111010
11111111
11
100
11111111
11111010
11111111
0
0
11111110
11111111
11111111
0
0
1
10
0
0
0
0
0
0
0
11111101
11111101
11111100
11111010
11111111
11111100
0
10
11111110
11111100
11111001
11111011
11111011
11111011
11110111
11111101
11111111
11111011
11111111
11
0
0
0
0
0
0
11111111
11111101
11111111
11111100
1
1
1
0
1
11
101
11111100
11110100
0
11110111
11111100
11111110
0
11111100
11111100
10
10
0
0
0
0
0
0
0
11111011
11111100
11111011
11111110
11111111
11
0
11
11111111
0
11111100
11111001
0
0
11111001
11111101
11110111
11111111
0
11
1
0
0
0
0
0
0
0
11111110
11111101
11111101
11111001
0
0
11
100
10
0
0
11111001
11111101
11111111
11111011
11
11111101
11111101
1
1
0
0
0
0
0
0
0
1
11111111
11111101
11111110
11111011
11111101
0
1
0
0
11111011
11111000
11110110
0
11111110
11111110
10
0
11111100
11
10
0
0
0
0
0
0
0
1
0
0
11
1
11111100
11111101
11111101
11111011
11111100
0
11111100
11111100
11111100
111
101
10
100
0
1001
110
1
0
0
0
0
0
0
10
1
101
1100
1000
1001
101
1000
10
110
1000
1000
11
0
11
10
100
1100
1100
1100
101
0
0
0
0
0
0
1
11
100
1000
1011
1101
1010
111
1111
1011
1100
1111
1111
1110
101
1001
1001
111
1011
1001
111
11
0
0
0
0
0
0
1
10
101
1000
111
11
1
111
110
110
101
1011
1000
1000
101
110
110
1000
110
1000
100
1
0
0
0
0
0
0
1
1
11
101
11
1
1
100
100
100
111
111
111
1100
1100
1100
111
11
101
100
11
1
0
0
0
0
0
0
0
0
0
11111101
10
0
0
110
110
100
1000
110
1000
111
101
110
1000
110
1
10
1
0
0
0
0
0
0
0
0
0
11111110
11111110
10
1
10
10
100
0
11
1
0
0
10
11
101
110
11111111
11111111
0
0
0
0
0
0
0
0
0
0
0
0
11111111
11111111
11111111
11111111
11111111
0
0
11111110
11111100
11111110
0
0
11111111
11111111
11111111
0
0
0
0
0
0
0
0
0
0
0
0
0
0
0
0
0
0
0
0
0
0
0
0
0
11111111
0
0
0
0
0
0
0
0
0
