0
0
0
0
0
0
0
0
0
0
0
0
0
0
0
0
0
0
0
0
0
0
0
0
0
0
0
0
0
0
0
0
0
0
0
0
0
0
0
0
0
0
0
0
0
0
0
0
0
0
0
0
0
0
0
0
0
0
0
0
0
0
0
0
0
0
0
0
0
0
11111111
0
0
11111111
0
0
0
0
0
0
0
0
0
0
0
0
0
0
0
0
0
0
0
0
11111111
11111101
0
10
10
1
11111111
0
0
11111110
0
11111111
0
0
0
0
0
0
0
0
0
0
0
1
0
0
1
1
1
11111110
11111011
10
10
11111110
11111100
11111100
0
11111101
11111101
11111111
11111111
0
0
0
0
0
0
0
0
0
10
10
1
11111111
11111101
11111111
11111010
11111100
0
1000
110
0
11111111
0
11111010
11111111
0
0
11111110
11111111
1
0
0
0
0
0
0
0
1
11111110
0
11111110
11111100
11111010
11111110
11111110
101
1111
1110
101
0
11111111
0
11111101
0
11111111
11111110
11111111
0
0
0
0
0
0
0
0
10
0
11
11111010
11111011
11111010
0
11111100
10
10010
1100
1
11111001
11111101
11111101
11111011
11111111
11111011
0
0
11111111
0
0
0
0
0
11111111
11111111
0
11111110
0
11111010
11111010
11111100
11111001
11111000
110
10010
101
11111011
0
1
0
100
11
11111101
0
0
11111101
11111110
0
0
0
0
11111111
11111111
0
0
11111100
11111100
11111001
11111001
11110110
11110111
101
10111
1010
11111111
11111101
0
110
111
101
11
1000
11
11111111
0
0
0
0
0
0
11111111
11111111
11111110
11111110
1
11111100
11111100
11110111
11110110
110
11001
1100
11111100
0
0
101
101
10
111
101
10
11111110
11111110
1
0
0
0
0
11111111
11111101
11111010
11111101
1
11111110
11111011
11110101
11111000
1010
10000
1
11111100
11111101
1
0
0
0
0
0
11111110
0
0
1
0
0
0
11111111
11111101
0
0
0
11111110
11111100
11111100
11110111
11111001
1011
1011
101
11111011
1
0
11111011
0
11111101
11111101
11111110
11111110
11111110
0
0
0
0
0
0
11111110
0
11111101
0
11111110
11111010
0
11111110
1
110
111
0
11111011
110
0
11111101
1
100
0
11111011
11111010
11111110
0
1
0
0
0
0
11111111
11111110
11111000
11111110
11111010
11111100
11111011
0
100
1010
110
11111111
11111111
11111110
11
0
11111101
11
11
11111011
11111011
11111110
0
1
0
0
0
11111111
11111111
11111110
11111110
11111111
11111011
11111111
11111110
11111101
101
101
1
0
1
11111110
100
0
0
11
11111110
0
0
10
10
0
0
0
0
0
0
10
11111111
11111101
0
0
11111110
10
101
1
101
11
0
11111101
111
1
11111100
11111111
11111100
0
10
1
0
0
0
0
0
0
0
11
0
0
11
100
10
11
100
101
101
10
1001
10
1
0
10
11111101
0
0
0
11111111
1
0
0
0
0
0
11111111
1
0
101
101
11111111
11111101
11111101
0
110
10
11111101
100
100
1
0
11111111
11111110
0
10
11111111
11111101
1
0
0
0
0
0
11111101
0
10
101
101
11111111
0
11111101
11111101
110
11
11111111
100
1000
0
11111111
0
11111110
11111101
11111111
10
0
0
0
0
0
0
0
11111111
1
0
11
101
1
11111111
10
10
0
1
11
11111101
0
11111100
0
11111111
0
0
11111110
1
0
0
0
0
0
0
0
0
11111111
11111101
0
0
11111111
0
0
1
11111110
11111101
11111110
11111001
11111110
11111101
0
11111111
11111110
11111110
0
0
11111111
11111111
0
0
0
0
0
0
11111110
11111110
0
100
1
100
11
101
11
1
11111111
11111111
100
11
0
11111101
11
0
10
0
11111111
11111111
0
0
0
0
0
0
0
0
0
10
11
11
1
11
11111101
11111111
0
0
11111111
11111110
10
11111110
11111110
10
0
11111111
11111110
0
0
0
0
0
0
0
0
0
0
11
100
10
10
11111101
0
11111101
1
11111110
0
11111111
11111111
0
11
0
0
0
11111111
0
0
0
0
0
0
0
0
0
1
11
10
1
1
11111111
0
11111111
11111110
11111011
0
0
10
100
11
0
11111111
11111110
11111111
0
0
0
0
0
0
0
0
0
0
0
11111111
11111110
0
11111111
0
10
1
11111110
1
11
11
1
1
1
0
0
0
0
0
0
0
0
0
0
0
0
0
0
0
0
0
0
0
0
0
0
0
0
1
0
0
0
0
0
0
0
0
0
