0
0
0
0
0
0
0
0
0
0
0
0
0
0
0
0
0
0
0
0
0
0
0
0
0
0
0
0
0
0
0
0
0
0
0
0
0
0
0
0
0
0
0
0
0
0
0
0
0
0
0
0
0
0
0
0
0
0
0
0
0
0
0
0
11111111
11111111
11111111
11111110
11111100
11111101
11111101
11111110
11111110
11111110
11111111
11111111
0
0
0
0
0
0
0
0
0
0
0
0
0
0
11111111
0
0
11111111
11111111
11111111
0
0
11111011
11110111
11110111
11110111
11111011
11111100
11111110
11111111
0
0
0
0
0
0
0
0
0
0
0
0
11111111
0
11
11111111
0
11
10
0
11111001
11111000
11110011
11110010
11111001
11111010
11111100
0
0
0
0
0
0
0
0
0
0
0
10
10
0
10
11
0
0
100
0
11
0
10
11110100
11101010
11110100
11111001
11111100
11111110
11111110
11111111
0
0
0
0
0
0
0
10
100
0
11
0
0
11111111
11111110
101
10
11111101
1
111
101
11111100
11111111
11110110
11111010
11111110
11111000
11111010
11111111
0
0
0
0
0
0
11
101
11111101
10
11111100
11111110
11111110
11111100
11111101
0
0
1001
1110
101
11111101
11111001
11110110
11111011
11111011
11111001
11111010
11111101
11111111
0
0
0
0
0
1
10
11111110
11111111
11111101
1
0
0
11111110
1
110
1001
100
11111111
0
11111011
11111100
11111100
11111000
11110101
11111010
11111100
11111110
0
0
0
0
0
0
11
0
1
100
11111111
11111110
11111111
0
1
1000
1001
100
11111011
0
0
11111011
11111011
11111000
11111000
11111011
11111110
11111111
0
1
0
0
1
1
0
11111111
100
1
11
10
10
11111110
11111100
100
1110
100
101
11111101
0
11111101
11111101
11111110
11111101
11111110
11111101
0
0
0
0
0
1
10
0
1
100
11
100
100
11
11
0
1000
1001
101
11111001
0
11111011
11111101
0
11111101
11111111
11111111
11111101
11111111
0
0
0
0
0
1
1
0
11
101
100
100
1
0
0
0
101
1000
11111110
0
0
0
11111111
0
1
11111101
11111101
10
10
0
0
0
0
0
10
1
1
100
0
0
0
11111011
11111011
11111101
1000
11111111
101
1
10
11111111
1
10
0
0
1
11
10
0
0
0
0
0
0
11111101
0
0
10
10
11111111
11111010
11111101
11111111
110
10
1
11111101
11111111
0
0
11111101
11111110
11
1
10
1
0
0
0
0
0
11111101
0
0
11111101
1
1
0
11111101
11111111
0
11111101
11
1
100
1
100
110
1
0
11111110
0
0
1
0
0
0
0
0
0
11
1
110
11
11111110
101
0
1
0
11111111
11111100
1
11111110
10
11
1001
11
100
0
0
0
1
0
0
0
0
0
0
0
1
100
0
0
11
11
10
0
1
0
10
11111111
11111111
0
0
100
11
0
11111111
1
0
0
0
0
0
0
0
11111101
0
11111111
11111101
11111111
11111111
11111011
11110101
11111111
0
11111111
11
1
11111100
11111010
11111001
101
10
0
11111110
1
0
0
0
0
0
11111111
0
11111110
11111101
11111110
11111111
11111001
11110101
11110010
11111010
0
101
0
11111101
11111110
0
10
11111011
11111110
11111110
11111110
11111111
0
0
0
0
0
0
0
0
11111101
11111010
11111111
11111110
11111001
11110110
11111000
11111011
11111111
1000
0
0
11111111
0
0
11111111
11111101
11111100
11111110
0
0
0
0
0
0
0
0
1
11111111
11111100
11111011
11111100
11111010
11111101
0
11
11111100
100
0
0
11111110
11111111
0
11111101
11111000
11110111
11111111
0
0
0
0
0
0
0
0
0
0
11111111
11111010
11110110
11111010
11111100
11111101
11
11111001
0
11111011
11111110
0
11111111
11111111
11111111
11110111
11111101
10
10
0
0
0
0
0
0
0
0
0
11111110
11111011
11110011
11110100
11111110
0
100
11111110
11111101
1
11111011
1
0
0
11111100
11111011
11111101
11
11
0
0
0
0
0
0
0
0
0
11111111
11111011
11111000
11110111
11111110
110
10
11111111
11110111
11111101
11111010
11111111
11111011
11111111
100
0
11111111
1
1
0
0
0
0
0
0
0
0
0
0
11111111
11111110
11
1010
1011
11
0
10
111
1
11111111
11111110
0
101
100
10
1
0
0
0
0
0
0
0
0
0
0
0
0
10
100
111
11
1
101
1010
111
100
10
0
0
10
11
1
0
0
0
0
0
0
0
0
0
0
0
0
0
0
0
10
0
0
0
0
0
0
0
0
0
0
0
1
0
0
0
0
0
